{
  "version": "1.0",
  "truncation": {
    "direction": "Right",
    "max_length": 6000,
    "strategy": "LongestFirst",
    "stride": 0
  },
  "padding": {
    "strategy": {
      "Fixed": 6000
    },
    "direction": "Right",
    "pad_to_multiple_of": null,
    "pad_id": 0,
    "pad_type_id": 0,
    "pad_token": "[PAD]"
  },
  "added_tokens": [
    {
      "id": 0,
      "content": "[PAD]",
      "single_word": false,
      "lstrip": false,
      "rstrip": false,
      "normalized": false,
      "special": true
    },
    {
      "id": 1,
      "content": "[UNK]",
      "single_word": false,
      "lstrip": false,
      "rstrip": false,
      "normalized": false,
      "special": true
    }
  ],
  "normalizer": null,
  "pre_tokenizer": {
    "type": "ByteLevel",
    "add_prefix_space": true,
    "trim_offsets": true,
    "use_regex": true
  },
  "post_processor": null,
  "decoder": {
    "type": "ByteLevel",
    "add_prefix_space": true,
    "trim_offsets": true,
    "use_regex": true
  },
  "model": {
    "type": "BPE",
    "dropout": null,
    "unk_token": "[UNK]",
    "continuing_subword_prefix": null,
    "end_of_word_suffix": null,
    "fuse_unk": false,
    "byte_fallback": false,
    "ignore_merges": false,
    "vocab": {
      "[PAD]": 0,
      "[UNK]": 1,
      "!": 2,
      "\"": 3,
      "#": 4,
      "$": 5,
      "%": 6,
      "&": 7,
      "'": 8,
      "(": 9,
      ")": 10,
      "*": 11,
      "+": 12,
      ",": 13,
      "-": 14,
      ".": 15,
      "/": 16,
      "0": 17,
      "1": 18,
      "2": 19,
      "3": 20,
      "4": 21,
      "5": 22,
      "6": 23,
      "7": 24,
      "8": 25,
      "9": 26,
      ":": 27,
      ";": 28,
      "<": 29,
      "=": 30,
      ">": 31,
      "?": 32,
      "@": 33,
      "A": 34,
      "B": 35,
      "C": 36,
      "D": 37,
      "E": 38,
      "F": 39,
      "G": 40,
      "H": 41,
      "I": 42,
      "J": 43,
      "K": 44,
      "L": 45,
      "M": 46,
      "N": 47,
      "O": 48,
      "P": 49,
      "Q": 50,
      "R": 51,
      "S": 52,
      "T": 53,
      "U": 54,
      "V": 55,
      "W": 56,
      "X": 57,
      "Y": 58,
      "Z": 59,
      "[": 60,
      "\\": 61,
      "]": 62,
      "^": 63,
      "_": 64,
      "`": 65,
      "a": 66,
      "b": 67,
      "c": 68,
      "d": 69,
      "e": 70,
      "f": 71,
      "g": 72,
      "h": 73,
      "i": 74,
      "j": 75,
      "k": 76,
      "l": 77,
      "m": 78,
      "n": 79,
      "o": 80,
      "p": 81,
      "q": 82,
      "r": 83,
      "s": 84,
      "t": 85,
      "u": 86,
      "v": 87,
      "w": 88,
      "x": 89,
      "y": 90,
      "z": 91,
      "{": 92,
      "|": 93,
      "}": 94,
      "~": 95,
      "¡": 96,
      "¢": 97,
      "£": 98,
      "¤": 99,
      "¥": 100,
      "¦": 101,
      "§": 102,
      "¨": 103,
      "©": 104,
      "ª": 105,
      "«": 106,
      "¬": 107,
      "®": 108,
      "¯": 109,
      "°": 110,
      "±": 111,
      "²": 112,
      "³": 113,
      "´": 114,
      "µ": 115,
      "¶": 116,
      "·": 117,
      "¸": 118,
      "¹": 119,
      "º": 120,
      "»": 121,
      "¼": 122,
      "½": 123,
      "¾": 124,
      "¿": 125,
      "À": 126,
      "Á": 127,
      "Â": 128,
      "Ã": 129,
      "Ä": 130,
      "Å": 131,
      "Æ": 132,
      "Ç": 133,
      "È": 134,
      "É": 135,
      "Ê": 136,
      "Ë": 137,
      "Ì": 138,
      "Í": 139,
      "Î": 140,
      "Ï": 141,
      "Ð": 142,
      "Ñ": 143,
      "Ò": 144,
      "Ó": 145,
      "Ô": 146,
      "Õ": 147,
      "Ö": 148,
      "×": 149,
      "Ø": 150,
      "Ù": 151,
      "Ú": 152,
      "Û": 153,
      "Ü": 154,
      "Ý": 155,
      "Þ": 156,
      "ß": 157,
      "à": 158,
      "á": 159,
      "â": 160,
      "ã": 161,
      "ä": 162,
      "å": 163,
      "æ": 164,
      "ç": 165,
      "è": 166,
      "é": 167,
      "ê": 168,
      "ë": 169,
      "ì": 170,
      "í": 171,
      "î": 172,
      "ï": 173,
      "ð": 174,
      "ñ": 175,
      "ò": 176,
      "ó": 177,
      "ô": 178,
      "õ": 179,
      "ö": 180,
      "÷": 181,
      "ø": 182,
      "ù": 183,
      "ú": 184,
      "û": 185,
      "ü": 186,
      "ý": 187,
      "þ": 188,
      "ÿ": 189,
      "Ā": 190,
      "ā": 191,
      "Ă": 192,
      "ă": 193,
      "Ą": 194,
      "ą": 195,
      "Ć": 196,
      "ć": 197,
      "Ĉ": 198,
      "ĉ": 199,
      "Ċ": 200,
      "ċ": 201,
      "Č": 202,
      "č": 203,
      "Ď": 204,
      "ď": 205,
      "Đ": 206,
      "đ": 207,
      "Ē": 208,
      "ē": 209,
      "Ĕ": 210,
      "ĕ": 211,
      "Ė": 212,
      "ė": 213,
      "Ę": 214,
      "ę": 215,
      "Ě": 216,
      "ě": 217,
      "Ĝ": 218,
      "ĝ": 219,
      "Ğ": 220,
      "ğ": 221,
      "Ġ": 222,
      "ġ": 223,
      "Ģ": 224,
      "ģ": 225,
      "Ĥ": 226,
      "ĥ": 227,
      "Ħ": 228,
      "ħ": 229,
      "Ĩ": 230,
      "ĩ": 231,
      "Ī": 232,
      "ī": 233,
      "Ĭ": 234,
      "ĭ": 235,
      "Į": 236,
      "į": 237,
      "İ": 238,
      "ı": 239,
      "Ĳ": 240,
      "ĳ": 241,
      "Ĵ": 242,
      "ĵ": 243,
      "Ķ": 244,
      "ķ": 245,
      "ĸ": 246,
      "Ĺ": 247,
      "ĺ": 248,
      "Ļ": 249,
      "ļ": 250,
      "Ľ": 251,
      "ľ": 252,
      "Ŀ": 253,
      "ŀ": 254,
      "Ł": 255,
      "ł": 256,
      "Ń": 257,
      "Ġt": 258,
      "Ġa": 259,
      "in": 260,
      "er": 261,
      "on": 262,
      "Ġth": 263,
      "Ġs": 264,
      "re": 265,
      "Ġ.": 266,
      "Ġc": 267,
      "or": 268,
      "en": 269,
      "at": 270,
      "Ġthe": 271,
      "Ġw": 272,
      "Ġp": 273,
      "ou": 274,
      "is": 275,
      "es": 276,
      "Ġ-": 277,
      "an": 278,
      "Ġf": 279,
      "Ġm": 280,
      "it": 281,
      "Ġ,": 282,
      "Ġb": 283,
      "ĠĠ": 284,
      "Ġo": 285,
      "Ġd": 286,
      "ed": 287,
      "al": 288,
      "ing": 289,
      "Ġin": 290,
      "Ġan": 291,
      "Ġh": 292,
      "ar": 293,
      "Ġto": 294,
      "Ġl": 295,
      "ic": 296,
      "ion": 297,
      "om": 298,
      "il": 299,
      "Ġof": 300,
      "Ġn": 301,
      "--": 302,
      "Ġe": 303,
      "Ġand": 304,
      "as": 305,
      "Ġre": 306,
      "__": 307,
      "ct": 308,
      "Ġ_": 309,
      "et": 310,
      "Ġy": 311,
      "ent": 312,
      "ro": 313,
      "le": 314,
      "Ġ:": 315,
      "Ġg": 316,
      "us": 317,
      "ve": 318,
      "Ġyou": 319,
      "Ġ/": 320,
      "ĠĠĠĠ": 321,
      "el": 322,
      "Ġfor": 323,
      "Ġ1": 324,
      "00": 325,
      "ch": 326,
      "Ġi": 327,
      "ation": 328,
      "Ġon": 329,
      "ce": 330,
      "ow": 331,
      "Ġis": 332,
      "ot": 333,
      "ers": 334,
      "un": 335,
      "Ġbe": 336,
      "Ġ2": 337,
      "ra": 338,
      "ol": 339,
      "----": 340,
      "Ġ*": 341,
      "st": 342,
      "ly": 343,
      "id": 344,
      "ay": 345,
      "Ġ(": 346,
      "Ġst": 347,
      "Ġcom": 348,
      "ut": 349,
      "____": 350,
      "ist": 351,
      "ill": 352,
      "Ġv": 353,
      "ig": 354,
      "Ġ)": 355,
      "Ġpro": 356,
      "Ġ'": 357,
      "Ġcon": 358,
      "Ġen": 359,
      "ur": 360,
      "am": 361,
      "ge": 362,
      "Ġthat": 363,
      "Ġit": 364,
      "ith": 365,
      "th": 366,
      "ter": 367,
      "Ġwh": 368,
      "Ġ\"": 369,
      "ad": 370,
      "Ġas": 371,
      "est": 372,
      "ail": 373,
      "Ġor": 374,
      "im": 375,
      "==": 376,
      "ess": 377,
      "em": 378,
      "Ġwith": 379,
      "Ġal": 380,
      "Ġj": 381,
      "Ġthis": 382,
      "ul": 383,
      "ver": 384,
      "Ġwe": 385,
      "se": 386,
      "Ġde": 387,
      "Ġr": 388,
      "res": 389,
      "Ġ=": 390,
      "Ġsu": 391,
      "Ġk": 392,
      "our": 393,
      "Ġne": 394,
      "ate": 395,
      "ir": 396,
      "qu": 397,
      "op": 398,
      "Ġfr": 399,
      "Ġha": 400,
      "iv": 401,
      "ĠI": 402,
      "Ġse": 403,
      "Ġare": 404,
      "Ġun": 405,
      "ld": 406,
      "ment": 407,
      "Ġat": 408,
      "Ġyour": 409,
      "Ġ3": 410,
      "ck": 411,
      "ere": 412,
      "Ġex": 413,
      "ity": 414,
      "ron": 415,
      "Ġsh": 416,
      "ect": 417,
      "Ġch": 418,
      "pp": 419,
      "Ġnot": 420,
      "ab": 421,
      "out": 422,
      "Ġcomp": 423,
      "ive": 424,
      "ht": 425,
      "Ġwill": 426,
      "ore": 427,
      "--------": 428,
      "ort": 429,
      "os": 430,
      "ant": 431,
      "Ġhave": 432,
      "age": 433,
      "Ġfrom": 434,
      "Ġ>": 435,
      "ak": 436,
      "Ġ$": 437,
      "Ġus": 438,
      "ri": 439,
      "ĠĠĠĠĠĠĠĠ": 440,
      "and": 441,
      "Ġ0": 442,
      "Ġad": 443,
      "ci": 444,
      "od": 445,
      "um": 446,
      "for": 447,
      "Ġby": 448,
      "________": 449,
      "art": 450,
      "ĠT": 451,
      "ard": 452,
      "ould": 453,
      "ie": 454,
      "pt": 455,
      "Ġsp": 456,
      "Ġ!": 457,
      "Ġenron": 458,
      "ies": 459,
      "**": 460,
      "oun": 461,
      "ase": 462,
      "ain": 463,
      "ust": 464,
      "Ġ@": 465,
      "ĠS": 466,
      "Ġu": 467,
      "Ġwor": 468,
      "end": 469,
      "Ġdo": 470,
      "ap": 471,
      "if": 472,
      "Ġ5": 473,
      "Ġ200": 474,
      "Ġab": 475,
      "Ġcan": 476,
      "tp": 477,
      "ions": 478,
      "Ġ4": 479,
      "====": 480,
      "com": 481,
      "og": 482,
      "Ġall": 483,
      "one": 484,
      "ag": 485,
      "all": 486,
      "ĠA": 487,
      "ud": 488,
      "Ġme": 489,
      "Ġ?": 490,
      "ell": 491,
      "ks": 492,
      "fer": 493,
      "ice": 494,
      "mail": 495,
      "ine": 496,
      "Ġac": 497,
      "Ġso": 498,
      "ber": 499,
      "Ġcont": 500,
      "ÃĤ": 501,
      "ĠC": 502,
      "ww": 503,
      "Ġle": 504,
      "ure": 505,
      "Ġ;": 506,
      "ang": 507,
      "form": 508,
      "Âł": 509,
      "Ġinter": 510,
      "are": 511,
      "ich": 512,
      "Ġ9": 513,
      "Ġif": 514,
      "ost": 515,
      "act": 516,
      "any": 517,
      "ight": 518,
      "ĠM": 519,
      "Ġpr": 520,
      "Ġnew": 521,
      "Ġam": 522,
      "ome": 523,
      "oo": 524,
      "ip": 525,
      "ast": 526,
      "ence": 527,
      "Ġmar": 528,
      "Ġany": 529,
      "ia": 530,
      "cl": 531,
      "ire": 532,
      "ff": 533,
      "ress": 534,
      "der": 535,
      "Ġcl": 536,
      "Ġ00": 537,
      "Ġres": 538,
      "Ġte": 539,
      "pl": 540,
      "ally": 541,
      "Ġour": 542,
      "Ġtr": 543,
      "Ġhe": 544,
      "Ġwas": 545,
      "Ã¯": 546,
      "ish": 547,
      "ĠP": 548,
      "Â½": 549,
      "Ġect": 550,
      "Ġhas": 551,
      "Ġsub": 552,
      "ans": 553,
      "Â¿": 554,
      "Ġpl": 555,
      "iz": 556,
      "ach": 557,
      "he": 558,
      "uct": 559,
      "Ġqu": 560,
      "Ġht": 561,
      "able": 562,
      "ations": 563,
      "ject": 564,
      "ĠĠĠ": 565,
      "//": 566,
      "lease": 567,
      "so": 568,
      "Ġgo": 569,
      "ub": 570,
      "Ġup": 571,
      "..": 572,
      "Ġ19": 573,
      "Ġrep": 574,
      "ke": 575,
      "Ġno": 576,
      "Ġadd": 577,
      "Ġ6": 578,
      "ĠW": 579,
      "Ġ7": 580,
      "ue": 581,
      "://": 582,
      "ack": 583,
      "Ġbut": 584,
      "ind": 585,
      "ance": 586,
      "ite": 587,
      "Ġout": 588,
      "ther": 589,
      "ake": 590,
      "Ġapp": 591,
      "Ġdis": 592,
      "ick": 593,
      "Ġmore": 594,
      "Ġint": 595,
      "Ġinv": 596,
      "ee": 597,
      "Ġinform": 598,
      "ĠF": 599,
      "ated": 600,
      "Ġmy": 601,
      "ial": 602,
      "Ġ8": 603,
      "ary": 604,
      "per": 605,
      "ac": 606,
      "ass": 607,
      "Ġthan": 608,
      "----------------": 609,
      "Ġsa": 610,
      "ib": 611,
      "Ġhttp": 612,
      "Ġmail": 613,
      "rou": 614,
      "ult": 615,
      "Ġtim": 616,
      "ram": 617,
      "day": 618,
      "Ġper": 619,
      "her": 620,
      "'s": 621,
      "ĠB": 622,
      "Ġpart": 623,
      "Ġph": 624,
      "ree": 625,
      "Ġwould": 626,
      "cess": 627,
      "ous": 628,
      "net": 629,
      "Ġone": 630,
      "Ġim": 631,
      "Ġtra": 632,
      "Ġplease": 633,
      "Ġ|": 634,
      "Ġsy": 635,
      "Ġinformation": 636,
      "oll": 637,
      "Ġar": 638,
      "AA": 639,
      "Ġag": 640,
      "ical": 641,
      "Ġwhich": 642,
      "ear": 643,
      "****": 644,
      "Ġhou": 645,
      "Ġabout": 646,
      "ition": 647,
      "now": 648,
      "ivers": 649,
      "gh": 650,
      "ĠO": 651,
      "erv": 652,
      "Ġlang": 653,
      "ĠD": 654,
      "Ġ10": 655,
      "Ġli": 656,
      "ne": 657,
      "de": 658,
      "ĠR": 659,
      "Ġlist": 660,
      "Ġcomm": 661,
      "________________": 662,
      "ics": 663,
      "Ġlangu": 664,
      "Ġget": 665,
      "Ġ+": 666,
      "Ġthey": 667,
      "ame": 668,
      "ide": 669,
      "red": 670,
      "ft": 671,
      "ook": 672,
      "Ġemail": 673,
      "ĠN": 674,
      "Ġthere": 675,
      "Ġcompany": 676,
      "Ġmark": 677,
      "Ġro": 678,
      "ount": 679,
      "ents": 680,
      "Ġoff": 681,
      "========": 682,
      "ĠH": 683,
      "Ġunivers": 684,
      "vel": 685,
      "Ġmay": 686,
      "Ġsome": 687,
      "ign": 688,
      "ile": 689,
      "ph": 690,
      "Ġreg": 691,
      "Ġ&": 692,
      "oc": 693,
      "ven": 694,
      "ĠL": 695,
      "Ġits": 696,
      "Ġfe": 697,
      "man": 698,
      "xt": 699,
      "ob": 700,
      "Ġsec": 701,
      "ug": 702,
      "Ġspe": 703,
      "ose": 704,
      "ren": 705,
      "'t": 706,
      "ings": 707,
      "Ġcor": 708,
      "ĠG": 709,
      "ry": 710,
      "olog": 711,
      "cial": 712,
      "ĠE": 713,
      "ink": 714,
      "Ġpre": 715,
      "ound": 716,
      "Ġknow": 717,
      "ax": 718,
      "Ġtime": 719,
      "ingu": 720,
      "iness": 721,
      "Ġother": 722,
      "cri": 723,
      "Ġtheir": 724,
      "Ġhow": 725,
      "gy": 726,
      "av": 727,
      "ong": 728,
      "âĢ": 729,
      "Ġpe": 730,
      "Ġbeen": 731,
      "Ġ#": 732,
      "Ġwork": 733,
      "Ġed": 734,
      "Ġman": 735,
      "Ġwhat": 736,
      "Ġbus": 737,
      "ory": 738,
      "Ġexp": 739,
      "ond": 740,
      "list": 741,
      "ock": 742,
      "ors": 743,
      "ates": 744,
      "Ġuniversity": 745,
      "Ġover": 746,
      "ms": 747,
      "Ġ199": 748,
      "ely": 749,
      "Ġonly": 750,
      "Ġfin": 751,
      "int": 752,
      "Ġreport": 753,
      "clud": 754,
      "Ġneed": 755,
      "Ġwho": 756,
      "inguist": 757,
      "Ġmon": 758,
      "Ġtrans": 759,
      "ces": 760,
      "ĊĠĠĠĠĠĠĠĠ": 761,
      "ĠU": 762,
      "duct": 763,
      "pe": 764,
      "Ġinvest": 765,
      "Ġmarket": 766,
      "Ġlike": 767,
      "Ġaddress": 768,
      "ual": 769,
      "Ġact": 770,
      "Ġalso": 771,
      "Ġlanguage": 772,
      "Ġind": 773,
      "Ġbusiness": 774,
      "Ġjust": 775,
      "lic": 776,
      "http": 777,
      "lect": 778,
      "ays": 779,
      "Ġhere": 780,
      "Ġ20": 781,
      "ward": 782,
      "itt": 783,
      "##": 784,
      "ens": 785,
      "Ġyear": 786,
      "Ġdisc": 787,
      "ian": 788,
      "Ġrece": 789,
      "Ġinc": 790,
      "stem": 791,
      "Ġprog": 792,
      "ract": 793,
      "ments": 794,
      "Ġver": 795,
      "iss": 796,
      "Ġnow": 797,
      "Ġ%": 798,
      "Ġmess": 799,
      "Ġco": 800,
      "arch": 801,
      "Ġ30": 802,
      "Ġshould": 803,
      "ities": 804,
      "own": 805,
      "Ġuse": 806,
      "Ġthese": 807,
      "ace": 808,
      "ative": 809,
      "Ġdes": 810,
      "te": 811,
      "Ġass": 812,
      "Ġrem": 813,
      "ople": 814,
      "Ġinclud": 815,
      "ages": 816,
      "Ġpos": 817,
      "Ġatt": 818,
      "Ġlinguist": 819,
      "Ġserv": 820,
      "inu": 821,
      "Ġsubject": 822,
      "Ġ11": 823,
      "Ġ2001": 824,
      "iew": 825,
      "ower": 826,
      "ove": 827,
      "ding": 828,
      "Ġpres": 829,
      "very": 830,
      "ont": 831,
      "use": 832,
      "Ġsaid": 833,
      "ov": 834,
      "ek": 835,
      "Ġaf": 836,
      "Ġacc": 837,
      "Ġprogram": 838,
      "lish": 839,
      "Ġbel": 840,
      "Ġrequ": 841,
      "Ġfir": 842,
      "ince": 843,
      "Ġrec": 844,
      "illion": 845,
      "ference": 846,
      "Ġ12": 847,
      "Ġbu": 848,
      "ited": 849,
      "www": 850,
      "Ġprov": 851,
      "ise": 852,
      "Ġinst": 853,
      "Ġpeople": 854,
      "ll": 855,
      "Ġsch": 856,
      "ons": 857,
      "roup": 858,
      "Ġcall": 859,
      "Ġsend": 860,
      "ange": 861,
      "Ġthem": 862,
      "ices": 863,
      "Ġsystem": 864,
      "oney": 865,
      "ĠThe": 866,
      "ollow": 867,
      "let": 868,
      "fo": 869,
      "Ġform": 870,
      "Ġx": 871,
      "Ġmake": 872,
      "ĊĠĠĠĠ": 873,
      "ational": 874,
      "Ġimp": 875,
      "Ġhel": 876,
      "wn": 877,
      "Ġdat": 878,
      "Ġtw": 879,
      "tain": 880,
      "Ġrel": 881,
      "Ġgen": 882,
      "ning": 883,
      "Ġfollow": 884,
      "ating": 885,
      "ware": 886,
      "ased": 887,
      "Ġwhen": 888,
      "line": 889,
      "ds": 890,
      "Ġnum": 891,
      "ĠY": 892,
      "ank": 893,
      "ĠIn": 894,
      "Ġwant": 895,
      "Ġweb": 896,
      "ys": 897,
      "Ġav": 898,
      "Ġpap": 899,
      "Ġla": 900,
      "irect": 901,
      "ĠTh": 902,
      "Ġinto": 903,
      "Ġcons": 904,
      "Ġcould": 905,
      "Ġ15": 906,
      "Ġem": 907,
      "Ġlet": 908,
      "Ġcorp": 909,
      "Ġproduct": 910,
      "Ġmessage": 911,
      "ble": 912,
      "Ġ2000": 913,
      "ĊĠ": 914,
      "Ġbr": 915,
      "Ġsee": 916,
      "inux": 917,
      "Ġjo": 918,
      "wor": 919,
      "Ġprof": 920,
      "ca": 921,
      "Ġlook": 922,
      "Ġinterest": 923,
      "uss": 924,
      "Ġhad": 925,
      "we": 926,
      "Ġter": 927,
      "be": 928,
      "Ġbl": 929,
      "Ġorder": 930,
      "Ġbet": 931,
      "ruct": 932,
      "ues": 933,
      "ins": 934,
      "ater": 935,
      "ders": 936,
      "to": 937,
      "ied": 938,
      "Ġ000": 939,
      "Ġ[": 940,
      "ergy": 941,
      "ology": 942,
      "pport": 943,
      "Ġeng": 944,
      "Ġdeal": 945,
      "Ġmoney": 946,
      "Ġpub": 947,
      "Ġra": 948,
      "velop": 949,
      "Ġconf": 950,
      "Ġcur": 951,
      "chn": 952,
      "Ġstat": 953,
      "ility": 954,
      "Ġfree": 955,
      "ption": 956,
      "ful": 957,
      "Ġpo": 958,
      "Ġfirst": 959,
      "********": 960,
      "Ġdirect": 961,
      "Ġgu": 962,
      "ars": 963,
      "ible": 964,
      "Ġ2002": 965,
      "Ġwww": 966,
      "Ġ~": 967,
      "sp": 968,
      "eric": 969,
      "Ġcol": 970,
      "scri": 971,
      "Ġenergy": 972,
      "Ġent": 973,
      "RE": 974,
      "Ġafter": 975,
      "Ġwere": 976,
      "Ġnet": 977,
      "Ġsent": 978,
      "oy": 979,
      "Ġrev": 980,
      "Ġdel": 981,
      "ru": 982,
      "rough": 983,
      "fore": 984,
      "Ġdon": 985,
      "Ġresp": 986,
      "Ġev": 987,
      "Ġche": 988,
      "ĠJ": 989,
      "Ġmet": 990,
      "ious": 991,
      "Ġsc": 992,
      "ced": 993,
      "Ġgre": 994,
      "++": 995,
      "Ġaut": 996,
      "Ġadv": 997,
      "Ġstock": 998,
      "Ġhis": 999,
      "Ġ01": 1000,
      "Ġdoes": 1001,
      "AAAA": 1002,
      "igh": 1003,
      "Ġgas": 1004,
      "Ġdown": 1005,
      "Ġmod": 1006,
      "Ġfl": 1007,
      "Ġback": 1008,
      "ah": 1009,
      "Ġread": 1010,
      "Ġdevelop": 1011,
      "Ġevery": 1012,
      "Ġpower": 1013,
      "ep": 1014,
      "uch": 1015,
      "Ġz": 1016,
      "Ġappro": 1017,
      "Ġnews": 1018,
      "Ġdif": 1019,
      "Ġtwo": 1020,
      "Ġstud": 1021,
      "ix": 1022,
      "Ġfun": 1023,
      "Ġcop": 1024,
      "ws": 1025,
      "ple": 1026,
      "ash": 1027,
      "search": 1028,
      "ade": 1029,
      "--------------------------------": 1030,
      "Ġthrough": 1031,
      "Ġ`": 1032,
      "erson": 1033,
      "io": 1034,
      "cy": 1035,
      "Ġsoft": 1036,
      "oth": 1037,
      "Ġmost": 1038,
      "Ġgener": 1039,
      "Ġbo": 1040,
      "Ã£": 1041,
      "Ġtechn": 1042,
      "ĠĠĠĠĠĠĠĠĠĠĠĠĠĠĠĠ": 1043,
      "ern": 1044,
      "Ġquest": 1045,
      "arg": 1046,
      "Ġval": 1047,
      "Ġvery": 1048,
      "redit": 1049,
      "Ġweek": 1050,
      "Ġforward": 1051,
      "Ġpay": 1052,
      "Ġresearch": 1053,
      "pos": 1054,
      "Ġday": 1055,
      "Ġwell": 1056,
      "Ġprice": 1057,
      "Ġcontact": 1058,
      "Ġhelp": 1059,
      "Ġright": 1060,
      "000": 1061,
      "Ġiss": 1062,
      "Ġsuch": 1063,
      "Ġob": 1064,
      "rent": 1065,
      "Ġsim": 1066,
      "ath": 1067,
      "ier": 1068,
      "Ġstart": 1069,
      "ric": 1070,
      "the": 1071,
      "du": 1072,
      "10": 1073,
      "Ġavail": 1074,
      "Ġcomput": 1075,
      "ize": 1076,
      "Ġeff": 1077,
      "Ġthen": 1078,
      "50": 1079,
      "Ġname": 1080,
      "Ġmonth": 1081,
      "Ġown": 1082,
      "Th": 1083,
      "ough": 1084,
      "ok": 1085,
      "Ġext": 1086,
      "Ġnor": 1087,
      "cept": 1088,
      "pr": 1089,
      "Ġmany": 1090,
      "================": 1091,
      "Ġnumber": 1092,
      "Ġdet": 1093,
      "Ġconference": 1094,
      "cause": 1095,
      "Ġway": 1096,
      "Ġsecur": 1097,
      "ional": 1098,
      "inal": 1099,
      "Ġworks": 1100,
      "Ġprocess": 1101,
      "Ġmin": 1102,
      "Ġet": 1103,
      "bers": 1104,
      "nt": 1105,
      "Ġgroup": 1106,
      "Ġel": 1107,
      "its": 1108,
      "ec": 1109,
      "ml": 1110,
      "ource": 1111,
      "Ġworld": 1112,
      "land": 1113,
      "Ġca": 1114,
      "ific": 1115,
      "Ġedu": 1116,
      "ives": 1117,
      "Ġset": 1118,
      "gan": 1119,
      "âĤ": 1120,
      "âĤ¬": 1121,
      "Ġanal": 1122,
      "Ġunder": 1123,
      "Ġcredit": 1124,
      "ull": 1125,
      "ĉĉ": 1126,
      "Ġcc": 1127,
      "Ġpartic": 1128,
      "Ġthink": 1129,
      "urn": 1130,
      "Ġpm": 1131,
      "ĊĠĠĠ": 1132,
      "Ġdr": 1133,
      "hip": 1134,
      "but": 1135,
      "ale": 1136,
      "Ġpost": 1137,
      "Ġtake": 1138,
      "Ġthanks": 1139,
      "ines": 1140,
      "Ġann": 1141,
      "Ġlong": 1142,
      "old": 1143,
      "Ġ\\": 1144,
      "Ġeven": 1145,
      "Ġbecause": 1146,
      "row": 1147,
      "ER": 1148,
      "Ġlinguistics": 1149,
      "Ġear": 1150,
      "atch": 1151,
      "Ġwithin": 1152,
      "Ġproject": 1153,
      "Ġmuch": 1154,
      "ures": 1155,
      "Ġfollowing": 1156,
      "Ġsm": 1157,
      "Ġavailable": 1158,
      "Ġdata": 1159,
      "air": 1160,
      "ember": 1161,
      "Ġfind": 1162,
      "Ġbefore": 1163,
      "info": 1164,
      "les": 1165,
      "Ġthose": 1166,
      "Ġ50": 1167,
      "Ġser": 1168,
      "Ġdec": 1169,
      "Ġaccount": 1170,
      "come": 1171,
      "Ġ]": 1172,
      "Ġcap": 1173,
      "Ġwr": 1174,
      "Ġmillion": 1175,
      "Ġhigh": 1176,
      "Ġlast": 1177,
      "Ġfinan": 1178,
      "Ġcent": 1179,
      "Ġeach": 1180,
      "Ġmeet": 1181,
      "ily": 1182,
      "Ġcar": 1183,
      "Ġcal": 1184,
      "hn": 1185,
      "Ġwhere": 1186,
      "Ġbro": 1187,
      "Ġcurrent": 1188,
      "...": 1189,
      "Ġbest": 1190,
      "ows": 1191,
      "Ġdep": 1192,
      "ural": 1193,
      "Ġsubm": 1194,
      "hing": 1195,
      "ting": 1196,
      "ular": 1197,
      "Ġdiscuss": 1198,
      "alk": 1199,
      "ex": 1200,
      "Ġke": 1201,
      "13": 1202,
      "co": 1203,
      "Ġoffer": 1204,
      "ner": 1205,
      "Ġfil": 1206,
      "Ġpresent": 1207,
      "Ġsign": 1208,
      "Ġgood": 1209,
      "min": 1210,
      "Ġ16": 1211,
      "Ġorig": 1212,
      "fic": 1213,
      "####": 1214,
      "Ġreceiv": 1215,
      "Ġpar": 1216,
      "wh": 1217,
      "Ġoper": 1218,
      "Ġproble": 1219,
      "Ġris": 1220,
      "ement": 1221,
      "ident": 1222,
      "ĠĠĊ": 1223,
      "Ġfax": 1224,
      "Ġvis": 1225,
      "tern": 1226,
      "Ġintern": 1227,
      "Ġagain": 1228,
      "bt": 1229,
      "12": 1230,
      "Ġsoftware": 1231,
      "Ġret": 1232,
      "als": 1233,
      "Ġma": 1234,
      "Ġdid": 1235,
      "elf": 1236,
      "read": 1237,
      "Ġ14": 1238,
      "Ġmade": 1239,
      "ustom": 1240,
      "ribut": 1241,
      "Ġcheck": 1242,
      "Ġop": 1243,
      "Ġpur": 1244,
      "aking": 1245,
      ">>": 1246,
      "Ġshe": 1247,
      "Ġnat": 1248,
      "Ġperson": 1249,
      "Ġservice": 1250,
      "Ġgl": 1251,
      "ants": 1252,
      "Ġresult": 1253,
      "Ġnext": 1254,
      "Ġcopy": 1255,
      "Ġsite": 1256,
      "Ġcommun": 1257,
      "Ġposs": 1258,
      "Ġty": 1259,
      "ements": 1260,
      "Ġcre": 1261,
      "Ġhome": 1262,
      "ild": 1263,
      "ider": 1264,
      "listinfo": 1265,
      "Ġfact": 1266,
      "ards": 1267,
      "Ġvar": 1268,
      "led": 1269,
      "The": 1270,
      "uro": 1271,
      "??": 1272,
      "Ġeas": 1273,
      "ty": 1274,
      "con": 1275,
      "OR": 1276,
      "Ġpa": 1277,
      "Ġ13": 1278,
      "Ġvince": 1279,
      "Ġtoday": 1280,
      "ON": 1281,
      "Ġgr": 1282,
      "Ġid": 1283,
      "ss": 1284,
      "Ġdist": 1285,
      "Ġ25": 1286,
      "Ġher": 1287,
      "Ġdiffer": 1288,
      "Ġest": 1289,
      "ission": 1290,
      "ave": 1291,
      "Ġbased": 1292,
      "lists": 1293,
      "Ġmed": 1294,
      "ĠWe": 1295,
      "ii": 1296,
      "ital": 1297,
      "sub": 1298,
      "Ġyears": 1299,
      "Ġbank": 1300,
      "Ġcustom": 1301,
      "Ġmor": 1302,
      "Ġfut": 1303,
      "Ġenglish": 1304,
      "Ġrequest": 1305,
      "ts": 1306,
      "other": 1307,
      "anies": 1308,
      "Ã¢": 1309,
      "Ġ100": 1310,
      "Ġtrading": 1311,
      "hop": 1312,
      "up": 1313,
      "ley": 1314,
      "Ġpapers": 1315,
      "ration": 1316,
      "ord": 1317,
      "20": 1318,
      "az": 1319,
      "oad": 1320,
      "Ġclick": 1321,
      "ets": 1322,
      "Ġtop": 1323,
      "iel": 1324,
      "Ġpoint": 1325,
      "work": 1326,
      "ood": 1327,
      "Ġexpect": 1328,
      "ourse": 1329,
      "Ġmailing": 1330,
      "Ġregist": 1331,
      "Ġvol": 1332,
      "Ġcomplet": 1333,
      "Ġbeing": 1334,
      "Ġsame": 1335,
      "Ġpol": 1336,
      "Ġmain": 1337,
      "Ġ21": 1338,
      "Ġbelow": 1339,
      "Ġcompanies": 1340,
      "linux": 1341,
      "Ġcount": 1342,
      "Ġcost": 1343,
      "Ġreal": 1344,
      "ction": 1345,
      "Ġ17": 1346,
      "________________________________": 1347,
      "iting": 1348,
      "Ġ18": 1349,
      "Ġbuy": 1350,
      "Ġreview": 1351,
      "ĠV": 1352,
      "Ġ24": 1353,
      "ames": 1354,
      "Ġsol": 1355,
      "org": 1356,
      "cc": 1357,
      "Ġdy": 1358,
      "Ġhour": 1359,
      "mm": 1360,
      "Ġusing": 1361,
      "Ġend": 1362,
      "Ġer": 1363,
      "Ġloc": 1364,
      "Ġmanage": 1365,
      "ences": 1366,
      "ict": 1367,
      "Ġfuture": 1368,
      "Ġgra": 1369,
      "Ġline": 1370,
      "ather": 1371,
      "ton": 1372,
      "Ġspecial": 1373,
      "Ġmust": 1374,
      "Ġrequire": 1375,
      "Ġste": 1376,
      "sh": 1377,
      "Ġexper": 1378,
      "ween": 1379,
      "ever": 1380,
      "Ġfile": 1381,
      "IN": 1382,
      "Ġjohn": 1383,
      "Ġconst": 1384,
      "cent": 1385,
      "Ġboth": 1386,
      "Ġsched": 1387,
      "Ġplan": 1388,
      "Ġfinancial": 1389,
      "ones": 1390,
      "Ġben": 1391,
      "Ġquestions": 1392,
      "ium": 1393,
      "Ġrun": 1394,
      "eep": 1395,
      "ertain": 1396,
      "Ġhand": 1397,
      "ode": 1398,
      "Ġsince": 1399,
      "Ġprovid": 1400,
      "Ġphone": 1401,
      "omet": 1402,
      "Ġreceive": 1403,
      "me": 1404,
      "ically": 1405,
      "subscri": 1406,
      "ger": 1407,
      "Ġlim": 1408,
      "ately": 1409,
      "med": 1410,
      "ston": 1411,
      "ient": 1412,
      "Ġstatements": 1413,
      "Ġsay": 1414,
      "Ġdate": 1415,
      "Ġlanguages": 1416,
      "rom": 1417,
      "Ġdef": 1418,
      "ume": 1419,
      "Ġameric": 1420,
      "Ġsupport": 1421,
      "ife": 1422,
      "Ġelect": 1423,
      "Ġchange": 1424,
      "Ġprom": 1425,
      "Ġused": 1426,
      "ret": 1427,
      "Ġstill": 1428,
      "ĠSt": 1429,
      "Ġbetween": 1430,
      "ved": 1431,
      "Ġfur": 1432,
      "ili": 1433,
      "Ġmem": 1434,
      "li": 1435,
      "Ġ1998": 1436,
      "ark": 1437,
      "ott": 1438,
      "Ġinvestment": 1439,
      "ki": 1440,
      "ĠIt": 1441,
      "Ġrisk": 1442,
      "Âģ": 1443,
      "way": 1444,
      "Ġtext": 1445,
      "Ġpublic": 1446,
      "aster": 1447,
      "Ġstate": 1448,
      "Ġcr": 1449,
      "Ġbook": 1450,
      "Ġdays": 1451,
      "ether": 1452,
      "Ġaddition": 1453,
      "Ġorgan": 1454,
      "pro": 1455,
      "ime": 1456,
      "Ġcase": 1457,
      "Ġsem": 1458,
      "Ġbelie": 1459,
      "Ġbre": 1460,
      "Ġapplic": 1461,
      "assin": 1462,
      "Ġgreat": 1463,
      "Ġlooking": 1464,
      "Ġcle": 1465,
      "aim": 1466,
      "Ġprofess": 1467,
      "ention": 1468,
      "vern": 1469,
      "vert": 1470,
      "Ġoriginal": 1471,
      "uring": 1472,
      "Ġfurther": 1473,
      "ares": 1474,
      "Ġexam": 1475,
      "99": 1476,
      "Ġshare": 1477,
      "Ġsur": 1478,
      "son": 1479,
      "Ġes": 1480,
      "Ġvers": 1481,
      "comm": 1482,
      "ef": 1483,
      "Ġlog": 1484,
      "Ġinclude": 1485,
      "Ġfew": 1486,
      "nd": 1487,
      "ute": 1488,
      "ĠK": 1489,
      "ccess": 1490,
      "ually": 1491,
      "Ġleg": 1492,
      "Ġreceived": 1493,
      "tic": 1494,
      "Ġut": 1495,
      "11": 1496,
      "Ġsl": 1497,
      "Ġcommunic": 1498,
      "ized": 1499,
      "Ġsit": 1500,
      "Ġincluding": 1501,
      "Ġinternet": 1502,
      "Ġbas": 1503,
      "Ġlot": 1504,
      "Ġcontract": 1505,
      "Ġsal": 1506,
      "mailman": 1507,
      "Ġexpl": 1508,
      "Ġservices": 1509,
      "Ġwhile": 1510,
      "aw": 1511,
      "urs": 1512,
      "Ġaccess": 1513,
      "thing": 1514,
      "Ġpaper": 1515,
      "Ġparticip": 1516,
      "Ġauth": 1517,
      "Ġinternational": 1518,
      "Ġdem": 1519,
      "oss": 1520,
      "Ġsell": 1521,
      "Ġwithout": 1522,
      "Ġ27": 1523,
      "Ġgive": 1524,
      "Ġworkshop": 1525,
      "Ġport": 1526,
      "Ġchar": 1527,
      "Ġacqu": 1528,
      "bo": 1529,
      "Ġmult": 1530,
      "cu": 1531,
      "ature": 1532,
      "amins": 1533,
      "Ġprovide": 1534,
      "Ġmanagement": 1535,
      "ense": 1536,
      "Ġhouston": 1537,
      "Ġtry": 1538,
      "Ġeuro": 1539,
      "Ġaccept": 1540,
      "rote": 1541,
      "Ġonline": 1542,
      "ool": 1543,
      "Ġ23": 1544,
      "OU": 1545,
      "Ġaff": 1546,
      "Ġdevelopment": 1547,
      "ght": 1548,
      "ĠĊĠĠĠĠĠĠĠĠ": 1549,
      "Ġhard": 1550,
      "ners": 1551,
      "Ġ02": 1552,
      "Ġhapp": 1553,
      "Ġask": 1554,
      "Ãĥ": 1555,
      "Ġagre": 1556,
      "Ġ--": 1557,
      "Ġchang": 1558,
      "Ġdifferent": 1559,
      "ote": 1560,
      "of": 1561,
      "Ġdetail": 1562,
      "eg": 1563,
      "ving": 1564,
      "enn": 1565,
      "Ġwrote": 1566,
      "Ġgoing": 1567,
      "Ġspeci": 1568,
      "Ġfull": 1569,
      "ify": 1570,
      "ason": 1571,
      "Ġref": 1572,
      "01": 1573,
      "Ġstand": 1574,
      "Ġcam": 1575,
      "Ġ22": 1576,
      "Ġupd": 1577,
      "Ġoffic": 1578,
      "Ġstr": 1579,
      "ached": 1580,
      "Ġeffect": 1581,
      "Ġconc": 1582,
      "amass": 1583,
      "Ġmeeting": 1584,
      "ised": 1585,
      "right": 1586,
      "uly": 1587,
      "amassassin": 1588,
      "ert": 1589,
      "Ġopt": 1590,
      "Ġunders": 1591,
      "rong": 1592,
      "Ġll": 1593,
      "ploy": 1594,
      "ody": 1595,
      ".\"": 1596,
      "iqu": 1597,
      "Ġindust": 1598,
      "Ġ31": 1599,
      "nes": 1600,
      "Ġincre": 1601,
      "pm": 1602,
      "pportun": 1603,
      "Ġjan": 1604,
      "els": 1605,
      "Ġperform": 1606,
      "Ġcomputer": 1607,
      "ramm": 1608,
      "ai": 1609,
      "ains": 1610,
      "Ġfound": 1611,
      "Ġequ": 1612,
      "Ġoffice": 1613,
      "Ġfam": 1614,
      "ĊĠĠĠĠĠĠĠ": 1615,
      "Ġpossible": 1616,
      "Ġsupp": 1617,
      "Ġbillion": 1618,
      "Ġput": 1619,
      "Ġ99": 1620,
      "Ġrecent": 1621,
      "soci": 1622,
      "mber": 1623,
      "Ġve": 1624,
      "Ġsecond": 1625,
      "und": 1626,
      "****************": 1627,
      "Ġmight": 1628,
      "Ġlear": 1629,
      "ience": 1630,
      "Ġopportun": 1631,
      "Ġtot": 1632,
      "ization": 1633,
      "Ġtransact": 1634,
      "Ġplace": 1635,
      "Ġnatural": 1636,
      "arm": 1637,
      "ork": 1638,
      "ution": 1639,
      "30": 1640,
      "ources": 1641,
      "Ġdepart": 1642,
      "Ġdav": 1643,
      "Ġsystems": 1644,
      "Ġdeli": 1645,
      "Ġsomet": 1646,
      "Ġproducts": 1647,
      "ves": 1648,
      "Ġkeep": 1649,
      "source": 1650,
      "itive": 1651,
      "Ġsure": 1652,
      "ES": 1653,
      "25": 1654,
      "Ġinde": 1655,
      "Ġnon": 1656,
      "hat": 1657,
      "Ġposition": 1658,
      "Ġpack": 1659,
      "Ġsuccess": 1660,
      "ĠThis": 1661,
      "Ġgiv": 1662,
      "Ġuk": 1663,
      "Ġge": 1664,
      "15": 1665,
      "Ġ40": 1666,
      "ror": 1667,
      "Ġsci": 1668,
      "Ġins": 1669,
      "ases": 1670,
      "Ġfore": 1671,
      "Ġdyne": 1672,
      "gest": 1673,
      "ĠOn": 1674,
      "Ġcash": 1675,
      "Ġdynegy": 1676,
      "Ġannoun": 1677,
      "site": 1678,
      "Ġ26": 1679,
      "ended": 1680,
      "ina": 1681,
      "AT": 1682,
      "iday": 1683,
      "Ġlead": 1684,
      "une": 1685,
      ").": 1686,
      "Ġger": 1687,
      "Ġimport": 1688,
      "Ġpat": 1689,
      "ĠÂ": 1690,
      "Ġrepres": 1691,
      "itch": 1692,
      "lex": 1693,
      "bert": 1694,
      "Ġmater": 1695,
      "++++": 1696,
      "Ġcome": 1697,
      "AN": 1698,
      "Ġpublish": 1699,
      "200": 1700,
      "pect": 1701,
      "aps": 1702,
      "ral": 1703,
      "Ġsumm": 1704,
      "ris": 1705,
      "Ġmean": 1706,
      "Ġspeak": 1707,
      "18": 1708,
      "ik": 1709,
      "Ġdue": 1710,
      "ills": 1711,
      "Ġconsider": 1712,
      "Ġtoo": 1713,
      "Ġunt": 1714,
      "Ġspam": 1715,
      "Ġtechnology": 1716,
      "Ġlink": 1717,
      "ope": 1718,
      "Ġabst": 1719,
      "yn": 1720,
      "....": 1721,
      "Ġmer": 1722,
      "Ġgramm": 1723,
      "Ġide": 1724,
      "19": 1725,
      "40": 1726,
      "vernment": 1727,
      "Ġsw": 1728,
      "Ġshares": 1729,
      "Ġsecurities": 1730,
      "ule": 1731,
      "less": 1732,
      "Ġthree": 1733,
      "Ġpast": 1734,
      "ential": 1735,
      "forge": 1736,
      "ified": 1737,
      "akes": 1738,
      "Ġprices": 1739,
      "Ġseem": 1740,
      "Ġworking": 1741,
      "Ġabstract": 1742,
      "33": 1743,
      "Ġlow": 1744,
      "To": 1745,
      "vers": 1746,
      "Ġmat": 1747,
      "AAAAAAAA": 1748,
      "not": 1749,
      "Ġclass": 1750,
      "Ġsecurity": 1751,
      "iet": 1752,
      "ĠIf": 1753,
      "This": 1754,
      "Ġpage": 1755,
      "Ġabove": 1756,
      "Ġhead": 1757,
      "Ġpot": 1758,
      "Ġopen": 1759,
      "sourceforge": 1760,
      "Ġreally": 1761,
      "ought": 1762,
      "Ġbig": 1763,
      "Ġfont": 1764,
      "ism": 1765,
      "Ġassoci": 1766,
      "ivid": 1767,
      "Ġ29": 1768,
      "tand": 1769,
      "Ġmaj": 1770,
      "'m": 1771,
      "Ġanother": 1772,
      "itions": 1773,
      "Ġgeneral": 1774,
      "Ġhist": 1775,
      "ably": 1776,
      "over": 1777,
      "ĠUn": 1778,
      "Ġvisit": 1779,
      "ĠYou": 1780,
      "In": 1781,
      "ator": 1782,
      "ision": 1783,
      "port": 1784,
      "Ġstruct": 1785,
      "Ġterm": 1786,
      "80": 1787,
      "indows": 1788,
      "Ġeurope": 1789,
      "Ġpress": 1790,
      "!!": 1791,
      "Ġshow": 1792,
      "html": 1793,
      "Ġissues": 1794,
      "Ġresults": 1795,
      "Ġsever": 1796,
      "Ġemploy": 1797,
      "Ġetc": 1798,
      "Ġrepresent": 1799,
      "Ġshort": 1800,
      "Ġinterested": 1801,
      "___": 1802,
      "Ġproblem": 1803,
      "ling": 1804,
      "Ã¥": 1805,
      "Ġinf": 1806,
      "icro": 1807,
      "ĠLinux": 1808,
      "ield": 1809,
      "Ġwin": 1810,
      "ĊĠĠĠĠĠ": 1811,
      "Ġword": 1812,
      "Ġdatab": 1813,
      "Ġcontro": 1814,
      "Ġcorpor": 1815,
      "Ġless": 1816,
      "Ġusa": 1817,
      "eng": 1818,
      "Ġview": 1819,
      "Ġclaim": 1820,
      "head": 1821,
      "Ġpropos": 1822,
      "ability": 1823,
      "Ġmarketing": 1824,
      "nia": 1825,
      "Ġtri": 1826,
      "ford": 1827,
      "Ġpass": 1828,
      "Ġlevel": 1829,
      "Ġqual": 1830,
      "Ġ03": 1831,
      "Ġje": 1832,
      "Ġjones": 1833,
      "ipp": 1834,
      "Ġphon": 1835,
      "resh": 1836,
      "Ġsess": 1837,
      "ready": 1838,
      "load": 1839,
      "Ġbetter": 1840,
      "Ġwish": 1841,
      "Ġ45": 1842,
      "gin": 1843,
      "nect": 1844,
      "Ġmm": 1845,
      "17": 1846,
      "br": 1847,
      "Ġ04": 1848,
      "~~": 1849,
      "Ġexec": 1850,
      "ifor": 1851,
      "sw": 1852,
      "Ġhum": 1853,
      "Ġrest": 1854,
      "Ġunderstand": 1855,
      "Ġdra": 1856,
      "Ġsynt": 1857,
      "Ġanaly": 1858,
      "ither": 1859,
      "IC": 1860,
      "cing": 1861,
      "ogn": 1862,
      "34": 1863,
      "Ġgrow": 1864,
      "Ġmanag": 1865,
      "ored": 1866,
      "____________": 1867,
      "Ġlife": 1868,
      "Ġlou": 1869,
      "ross": 1870,
      "ugust": 1871,
      "Ġtotal": 1872,
      "Ġinvol": 1873,
      "Sp": 1874,
      "Ġnever": 1875,
      "86": 1876,
      "Ġdoll": 1877,
      "Ġfinal": 1878,
      "ifornia": 1879,
      "Ġdepartment": 1880,
      "Ġuntil": 1881,
      "Ġpurch": 1882,
      "Ġwon": 1883,
      "Ġlinguistic": 1884,
      "Ġ09": 1885,
      "ists": 1886,
      "Ġmembers": 1887,
      "Ġaddresses": 1888,
      "Ġanalys": 1889,
      "'ve": 1890,
      "Ġhot": 1891,
      "Ġ28": 1892,
      "ittle": 1893,
      "Ġold": 1894,
      "ann": 1895,
      "Ġbar": 1896,
      "AL": 1897,
      "Ġoct": 1898,
      "Ġhim": 1899,
      "Ġpri": 1900,
      "ateg": 1901,
      "Ġthank": 1902,
      "Ġable": 1903,
      "ng": 1904,
      "Ġlo": 1905,
      "aminski": 1906,
      "$$": 1907,
      "Ġhowever": 1908,
      "view": 1909,
      "ooks": 1910,
      "self": 1911,
      "Ġtalk": 1912,
      "Ġ95": 1913,
      "Ġmajor": 1914,
      "Ã¬": 1915,
      "Ġfast": 1916,
      "ird": 1917,
      "Ġattached": 1918,
      "oved": 1919,
      "16": 1920,
      "Ġneg": 1921,
      "Ġident": 1922,
      "Ġnote": 1923,
      "Ġil": 1924,
      "Ġtest": 1925,
      "Ġ05": 1926,
      "Ġpriv": 1927,
      "ways": 1928,
      "-=": 1929,
      "Ġwhy": 1930,
      "Ġdocu": 1931,
      "Ġpartners": 1932,
      "Ġmeth": 1933,
      "Ġwebsite": 1934,
      "Ġkaminski": 1935,
      "Ġselect": 1936,
      "Ġ60": 1937,
      "ered": 1938,
      "Ġplay": 1939,
      "arant": 1940,
      "Ġgot": 1941,
      "____________________________________________": 1942,
      "ead": 1943,
      "ada": 1944,
      "Ġmr": 1945,
      "au": 1946,
      "Ġchair": 1947,
      "Ġlittle": 1948,
      "raph": 1949,
      "gr": 1950,
      "14": 1951,
      "ilities": 1952,
      "Ġcourse": 1953,
      "Ġdow": 1954,
      "Ġvi": 1955,
      "Ġalready": 1956,
      "ET": 1957,
      "Ġur": 1958,
      "Ġissue": 1959,
      "ules": 1960,
      "ĊĠĠ": 1961,
      "users": 1962,
      "Ġsearch": 1963,
      "soft": 1964,
      "sy": 1965,
      "Ġsou": 1966,
      "atic": 1967,
      "reet": 1968,
      "Ġcommitt": 1969,
      "ification": 1970,
      "ĠĠĠĠĠĠĠ": 1971,
      "Ġdesign": 1972,
      "Ġversion": 1973,
      "vious": 1974,
      "ined": 1975,
      "Ġcode": 1976,
      "Ġfriday": 1977,
      "Ġsomething": 1978,
      "bs": 1979,
      "change": 1980,
      "Ġ97": 1981,
      "Ġdatabase": 1982,
      "_______________________________________________": 1983,
      "Ġcalifornia": 1984,
      "Ġfac": 1985,
      "Ġmove": 1986,
      "98": 1987,
      "rist": 1988,
      "Ġjob": 1989,
      "Ġlimited": 1990,
      "Ġdescri": 1991,
      "EN": 1992,
      "val": 1993,
      "Ġq": 1994,
      "ĠTH": 1995,
      "Ġdistribut": 1996,
      "Ġap": 1997,
      "Ġsing": 1998,
      "Ġsave": 1999,
      "Ġassist": 2000,
      "Ġschool": 2001,
      "ptember": 2002,
      "Ġreserv": 2003,
      "medi": 2004,
      "itor": 2005,
      "Ġlu": 2006,
      "Ġregards": 2007,
      "Ġindivid": 2008,
      "24": 2009,
      "Ġsk": 2010,
      "26": 2011,
      "ief": 2012,
      "Ġeasy": 2013,
      "List": 2014,
      "Ġlar": 2015,
      "Ġseveral": 2016,
      "IL": 2017,
      "osed": 2018,
      "Ġtype": 2019,
      "OM": 2020,
      "Ġmid": 2021,
      "Ġmich": 2022,
      "Ġstop": 2023,
      "iter": 2024,
      "ĠNe": 2025,
      "obal": 2026,
      "by": 2027,
      "unch": 2028,
      "Ġgiven": 2029,
      "Ġnom": 2030,
      "lement": 2031,
      "Ġonce": 2032,
      "Ġteam": 2033,
      "Ġrele": 2034,
      "Ġvia": 2035,
      "Ġanyone": 2036,
      "Ġadvert": 2037,
      "########": 2038,
      "Ġwords": 2039,
      "Ġdetails": 2040,
      "Ġanalysis": 2041,
      "-=-=": 2042,
      "no": 2043,
      "Ġfri": 2044,
      "Ġinfo": 2045,
      "Ġsmall": 2046,
      "Ġ90": 2047,
      "Ġdom": 2048,
      "Ġleast": 2049,
      "ahoo": 2050,
      "Ġadditional": 2051,
      "53": 2052,
      "Ġrate": 2053,
      "Ġinstit": 2054,
      "Ġdavid": 2055,
      "Ġprot": 2056,
      "Ġmethod": 2057,
      "uation": 2058,
      "Ġsubscri": 2059,
      "ony": 2060,
      "Ġwed": 2061,
      "Ġgovernment": 2062,
      "subscribe": 2063,
      "Ġever": 2064,
      "Ġclear": 2065,
      "ior": 2066,
      "put": 2067,
      "Ġpercent": 2068,
      "alth": 2069,
      "ĠCh": 2070,
      "Ġsat": 2071,
      "Ġrights": 2072,
      "Ġmonths": 2073,
      "Ġimportant": 2074,
      "Ġregard": 2075,
      "Ġbox": 2076,
      "alf": 2077,
      "Ġlat": 2078,
      "Ġreports": 2079,
      "Ġproblems": 2080,
      "ternet": 2081,
      "Ġtele": 2082,
      "cer": 2083,
      "Ġcard": 2084,
      "Ġyork": 2085,
      "Ġspecific": 2086,
      "Ġduring": 2087,
      "ceed": 2088,
      "Ġ08": 2089,
      "ST": 2090,
      "Ġtimes": 2091,
      "Ġprofessional": 2092,
      "Ġcontin": 2093,
      "ledge": 2094,
      "ese": 2095,
      "Ġmi": 2096,
      "ĠCom": 2097,
      "================================": 2098,
      "Ġder": 2099,
      "Ġaround": 2100,
      "Ġvalue": 2101,
      "Ġmaintain": 2102,
      "Ġtre": 2103,
      "---": 2104,
      "Ġmaterial": 2105,
      "ls": 2106,
      "Ġdone": 2107,
      "Ġkind": 2108,
      "ocus": 2109,
      "Ġforwarded": 2110,
      "Ġauthor": 2111,
      "gu": 2112,
      "Ġcertain": 2113,
      "Ġreturn": 2114,
      "Ġcustomers": 2115,
      "Ġpop": 2116,
      "Ġquestion": 2117,
      "Ġcapital": 2118,
      "Ġthings": 2119,
      "Ġwee": 2120,
      "Ġbelieve": 2121,
      "nesday": 2122,
      "Ġtit": 2123,
      "Ġhours": 2124,
      "Ġfre": 2125,
      "ands": 2126,
      "Ġfour": 2127,
      "inks": 2128,
      "Ġsemant": 2129,
      "REE": 2130,
      "ged": 2131,
      "ĠX": 2132,
      "Ġ{": 2133,
      "Ġwa": 2134,
      "Ġrelated": 2135,
      "Ġindividual": 2136,
      "ias": 2137,
      "ending": 2138,
      "Ġsales": 2139,
      "Ġindic": 2140,
      "thers": 2141,
      "ĠĠĠĠĠ": 2142,
      "Ġnorth": 2143,
      "Ġconcern": 2144,
      "Ġexecut": 2145,
      "Ġfeel": 2146,
      "Ġyes": 2147,
      "Ġsug": 2148,
      "ps": 2149,
      "Ġbill": 2150,
      "Ġtrad": 2151,
      "Ġimmedi": 2152,
      "Ġagreement": 2153,
      "'re": 2154,
      "âĢļ": 2155,
      "88": 2156,
      "Ġ<": 2157,
      "conom": 2158,
      "Ġacquis": 2159,
      "ĊĠĠĠĠĠĠĠĠĠĠĠ": 2160,
      "get": 2161,
      "ries": 2162,
      "gra": 2163,
      "Ġletter": 2164,
      "Ġperformance": 2165,
      "ising": 2166,
      "Ġlex": 2167,
      "ites": 2168,
      "Ġcommer": 2169,
      "Ġinvestors": 2170,
      "Ġkey": 2171,
      "FF": 2172,
      "app": 2173,
      "ream": 2174,
      "Ġweeks": 2175,
      "Ġrefer": 2176,
      "Ġalways": 2177,
      "Ġbreak": 2178,
      "Ġmaking": 2179,
      "eech": 2180,
      "OT": 2181,
      "Ġdebt": 2182,
      "Ġsection": 2183,
      "hol": 2184,
      "Ġreply": 2185,
      "Ġtheory": 2186,
      "Ġrich": 2187,
      "Ġanalyst": 2188,
      "AM": 2189,
      "Ġquick": 2190,
      "Ġhtml": 2191,
      "Ġ500": 2192,
      "Ġwar": 2193,
      "Ġallow": 2194,
      "Ġ713": 2195,
      "Ġcare": 2196,
      "berg": 2197,
      "bl": 2198,
      "Ġ35": 2199,
      "Ġsoci": 2200,
      "utes": 2201,
      "ronic": 2202,
      "eek": 2203,
      "90": 2204,
      "iam": 2205,
      "Ġeither": 2206,
      "'ll": 2207,
      "IT": 2208,
      "Ġinstall": 2209,
      "Ġfriend": 2210,
      "Ġtrade": 2211,
      "Ġsoon": 2212,
      "ana": 2213,
      "Ġlegal": 2214,
      "oice": 2215,
      "Ġtell": 2216,
      "Ġremove": 2217,
      "Ġregistration": 2218,
      "bur": 2219,
      "pa": 2220,
      "âĤ¬Â": 2221,
      "Ġcoll": 2222,
      "che": 2223,
      "Ġopportunity": 2224,
      "Ġeconom": 2225,
      "par": 2226,
      "Ġsize": 2227,
      "Ġhol": 2228,
      "ological": 2229,
      "Ġindustry": 2230,
      "Ġ^": 2231,
      "ael": 2232,
      "back": 2233,
      "ery": 2234,
      "ency": 2235,
      "Ġmonday": 2236,
      "uesday": 2237,
      "Ġhpl": 2238,
      "Ġuser": 2239,
      "ination": 2240,
      "Ġcompet": 2241,
      "Ġce": 2242,
      "Ġdou": 2243,
      "We": 2244,
      "Ġdial": 2245,
      "Ġspeech": 2246,
      "Ġautom": 2247,
      "Ġprob": 2248,
      "apan": 2249,
      "Ġguarant": 2250,
      "icrosoft": 2251,
      "ny": 2252,
      "Ġthous": 2253,
      "ĠGroup": 2254,
      "Ġcopyright": 2255,
      "Ġ80": 2256,
      "22": 2257,
      "Ġteach": 2258,
      "Ġothers": 2259,
      "Ġconnect": 2260,
      "vin": 2261,
      "Ġtyp": 2262,
      "Ġcomplete": 2263,
      "ging": 2264,
      "ining": 2265,
      "AR": 2266,
      "Ġsuggest": 2267,
      "Ġrespons": 2268,
      "ison": 2269,
      "Ġfar": 2270,
      "Ġbra": 2271,
      "ĠYOU": 2272,
      "mh": 2273,
      "Ġpip": 2274,
      "Ġprefer": 2275,
      "Ġreason": 2276,
      "Ġfiles": 2277,
      "Ġcurrently": 2278,
      "af": 2279,
      "Ġfocus": 2280,
      "aily": 2281,
      "Ġserver": 2282,
      "Ġlouise": 2283,
      "Ġwednesday": 2284,
      "news": 2285,
      "Ġcannot": 2286,
      "eral": 2287,
      "ired": 2288,
      "sc": 2289,
      "ply": 2290,
      "Ġexchange": 2291,
      "Ġarr": 2292,
      "Ġ06": 2293,
      "Ġmodel": 2294,
      "ness": 2295,
      "Ġbuil": 2296,
      "ze": 2297,
      "Ġlaw": 2298,
      "Ġdead": 2299,
      "Ġarea": 2300,
      "iy": 2301,
      "Ġamount": 2302,
      "Ġrequired": 2303,
      "omen": 2304,
      "Ġterms": 2305,
      "Ġchanges": 2306,
      "Ġsus": 2307,
      "Ġglobal": 2308,
      "Ġapr": 2309,
      "Ġcenter": 2310,
      "Ġdollars": 2311,
      "ober": 2312,
      "ursday": 2313,
      "bc": 2314,
      "gn": 2315,
      "Ġagainst": 2316,
      "bed": 2317,
      "Ġansw": 2318,
      "Ġlater": 2319,
      "Ġapproach": 2320,
      "Ġexperience": 2321,
      "Ġprovided": 2322,
      "Ġcommittee": 2323,
      "ane": 2324,
      "ung": 2325,
      "Ġjuly": 2326,
      "Ġnames": 2327,
      "Ġorders": 2328,
      "qq": 2329,
      "ĠÃĤ": 2330,
      "Ġspons": 2331,
      "ĠWh": 2332,
      "Ġ07": 2333,
      "ĠTo": 2334,
      "Ġmarch": 2335,
      "RL": 2336,
      "ourn": 2337,
      "Ġhar": 2338,
      "Ġcountry": 2339,
      "Ġyet": 2340,
      "idence": 2341,
      "Ġconfir": 2342,
      "su": 2343,
      "ura": 2344,
      "Ġthing": 2345,
      "ĠAd": 2346,
      "Ġelse": 2347,
      "Ġexc": 2348,
      "Ġ}": 2349,
      "Ġhy": 2350,
      "ED": 2351,
      "ring": 2352,
      "att": 2353,
      "anks": 2354,
      "Ġjune": 2355,
      "Ġintro": 2356,
      "Ġenc": 2357,
      "obe": 2358,
      "Ġvolume": 2359,
      "ique": 2360,
      "Ġacquisition": 2361,
      "Ġwatch": 2362,
      "Ġfund": 2363,
      "go": 2364,
      "Ġaugust": 2365,
      "Ġpet": 2366,
      "ica": 2367,
      "Ġpersonal": 2368,
      "IG": 2369,
      "Ġbul": 2370,
      "Ġcorre": 2371,
      "Ġpotential": 2372,
      "ples": 2373,
      "Ġupdate": 2374,
      "Ġturn": 2375,
      "23": 2376,
      "Ġeffort": 2377,
      "Ġlarge": 2378,
      "Ġaud": 2379,
      "Ġexample": 2380,
      "27": 2381,
      "Ġpresident": 2382,
      "Ġdiscussion": 2383,
      "rish": 2384,
      "ories": 2385,
      "Ġthought": 2386,
      "Ġproper": 2387,
      "Ġfamily": 2388,
      "Ġhope": 2389,
      "Ġwhether": 2390,
      "You": 2391,
      "Ġthird": 2392,
      "Ġbeh": 2393,
      "Ġexpress": 2394,
      "ĠUs": 2395,
      "Ġmarkets": 2396,
      "onse": 2397,
      "Ġ1999": 2398,
      "Ġfail": 2399,
      "Ġfall": 2400,
      "Ġocc": 2401,
      "ĠFREE": 2402,
      "cul": 2403,
      "ara": 2404,
      "aren": 2405,
      "Ġrepl": 2406,
      "Ġprograms": 2407,
      "Ġtool": 2408,
      "Ġcontinue": 2409,
      "Ġmc": 2410,
      "Ġtex": 2411,
      "ĠPro": 2412,
      "Ġartic": 2413,
      "arter": 2414,
      "Ġearn": 2415,
      "Ġjapan": 2416,
      "Ġanything": 2417,
      "Ġ1995": 2418,
      "48": 2419,
      "ees": 2420,
      "Ġwest": 2421,
      "Ġcover": 2422,
      "Ġnetwork": 2423,
      "ĉĉĉĉ": 2424,
      "Ġlarg": 2425,
      "Ġtarg": 2426,
      "Ġinit": 2427,
      "Ġerror": 2428,
      "Ġprodu": 2429,
      "ĠAm": 2430,
      "Ġstructure": 2431,
      "Ġloss": 2432,
      "Ġchild": 2433,
      "ondon": 2434,
      "Ġparticular": 2435,
      "29": 2436,
      "OW": 2437,
      "issions": 2438,
      "Ġdeals": 2439,
      "36": 2440,
      "Ġhaving": 2441,
      "ĠSo": 2442,
      "ĠRe": 2443,
      "Ġnational": 2444,
      "Ġtransaction": 2445,
      "Ġapril": 2446,
      "ĠFor": 2447,
      "Ġneeds": 2448,
      "Ġobject": 2449,
      "Ġ98": 2450,
      "Ġsomeone": 2451,
      "ga": 2452,
      "Ġnumbers": 2453,
      "ĠIN": 2454,
      "Ġhuman": 2455,
      "Ġcou": 2456,
      "Ġactiv": 2457,
      "Ġdoing": 2458,
      "ared": 2459,
      "ĠUS": 2460,
      "Ġlate": 2461,
      "Ġmessages": 2462,
      "ters": 2463,
      "fe": 2464,
      "Ġcontinu": 2465,
      "Ã«": 2466,
      "ering": 2467,
      "Ġimpro": 2468,
      "Ġexist": 2469,
      "Ġknowledge": 2470,
      "Åĵ": 2471,
      "Ġresources": 2472,
      "Ġsym": 2473,
      "Ġschedule": 2474,
      "Ġlearn": 2475,
      "Ġtel": 2476,
      "Ġheld": 2477,
      "Ġsession": 2478,
      "rop": 2479,
      "Ġdece": 2480,
      "ensive": 2481,
      "Ġsyntax": 2482,
      "55": 2483,
      "Ġdu": 2484,
      "Ġstep": 2485,
      "Ġvir": 2486,
      "ording": 2487,
      "Ġthough": 2488,
      "Ġair": 2489,
      "Ġcut": 2490,
      "Ġstates": 2491,
      "rew": 2492,
      "Ġoffers": 2493,
      "por": 2494,
      "fresh": 2495,
      "oid": 2496,
      "erm": 2497,
      "Ġcontent": 2498,
      "IS": 2499,
      "ten": 2500,
      "Ã¦": 2501,
      "Ġsex": 2502,
      "Ġchief": 2503,
      "Ġart": 2504,
      "PM": 2505,
      "Ġbecome": 2506,
      "Ġms": 2507,
      "Ġ44": 2508,
      "Ġcontribut": 2509,
      "Ġnorm": 2510,
      "ION": 2511,
      "master": 2512,
      "uk": 2513,
      "ush": 2514,
      "Ġoil": 2515,
      "Ġrelease": 2516,
      "Ġtransl": 2517,
      "Ġdeliver": 2518,
      "Ġinstruct": 2519,
      "EC": 2520,
      "ext": 2521,
      "Ġthursday": 2522,
      "Ġshipp": 2523,
      "Ġgetting": 2524,
      "Ġrespect": 2525,
      "ND": 2526,
      "Ġsays": 2527,
      "Ġtom": 2528,
      "Ġlocal": 2529,
      "ially": 2530,
      "acy": 2531,
      "Ġfeb": 2532,
      "Ġresponse": 2533,
      "uff": 2534,
      "Ġchrist": 2535,
      "Ġseptember": 2536,
      "Ġnecess": 2537,
      "Ġtransfer": 2538,
      "Ġbroad": 2539,
      "erc": 2540,
      "minist": 2541,
      "28": 2542,
      "where": 2543,
      "Ġstandard": 2544,
      "ips": 2545,
      "Ġrelations": 2546,
      "2002": 2547,
      "igation": 2548,
      "ĠWeb": 2549,
      "Ġhi": 2550,
      "Ġbegin": 2551,
      "Ġnear": 2552,
      "ĠTO": 2553,
      "Ġminutes": 2554,
      "Ġamerican": 2555,
      "),": 2556,
      "ky": 2557,
      "Ġsuper": 2558,
      "ney": 2559,
      "https": 2560,
      "If": 2561,
      "Ġstrong": 2562,
      "rupt": 2563,
      "Ġcolle": 2564,
      "Ġlab": 2565,
      "iod": 2566,
      "Ġremoved": 2567,
      "letter": 2568,
      "Ġelectric": 2569,
      "atives": 2570,
      "Ġmov": 2571,
      "Ġenough": 2572,
      "Ġprior": 2573,
      "ĠInternet": 2574,
      "95": 2575,
      "uary": 2576,
      "Ġber": 2577,
      "Ġaffili": 2578,
      "rem": 2579,
      "ety": 2580,
      "Ġcity": 2581,
      "Ġlondon": 2582,
      "Ġdev": 2583,
      "Ġsimply": 2584,
      "Ġeffective": 2585,
      "Ġbit": 2586,
      "hips": 2587,
      "isf": 2588,
      "Ġmill": 2589,
      "Ġmention": 2590,
      "Ġsimple": 2591,
      "Ġ46": 2592,
      "Ġstudents": 2593,
      "Ġamerica": 2594,
      "Ġpromot": 2595,
      "Ġoctober": 2596,
      "Ġmo": 2597,
      "ibility": 2598,
      "Ġcontain": 2599,
      "Ġpurchase": 2600,
      "Ġstudy": 2601,
      "Ġestim": 2602,
      "Ġbenef": 2603,
      "Ġmeaning": 2604,
      "vent": 2605,
      "ĠĊ": 2606,
      "Ġpaid": 2607,
      "Ġapplication": 2608,
      "Ġhappen": 2609,
      "Ġsf": 2610,
      "Ġprin": 2611,
      "Ġparty": 2612,
      "Ġconstruct": 2613,
      "ilar": 2614,
      "Ġwrite": 2615,
      "Ġscience": 2616,
      "Ġhu": 2617,
      "Ġadobe": 2618,
      "Ġpract": 2619,
      "Ġquality": 2620,
      "ID": 2621,
      "Ġaction": 2622,
      "Ġcollect": 2623,
      "Ġdownload": 2624,
      "Ġcontrol": 2625,
      "Ġcommercial": 2626,
      "reg": 2627,
      "Ġcour": 2628,
      "Ġpers": 2629,
      "Ġgrammar": 2630,
      "Ġmil": 2631,
      "Ġ55": 2632,
      "Ġtax": 2633,
      "eline": 2634,
      "Ġ70": 2635,
      "Ġrobert": 2636,
      "SS": 2637,
      "vir": 2638,
      "itical": 2639,
      "Ġquarter": 2640,
      "Â©": 2641,
      "Ġago": 2642,
      "Ġstocks": 2643,
      "ires": 2644,
      "atures": 2645,
      "Ġboard": 2646,
      "Ġsource": 2647,
      "Ġinterview": 2648,
      "Ġevents": 2649,
      "Ġ75": 2650,
      "Ġevent": 2651,
      "sol": 2652,
      "Ġtog": 2653,
      "ien": 2654,
      "most": 2655,
      "ograph": 2656,
      "Ġdirector": 2657,
      "Ġprocessing": 2658,
      "xim": 2659,
      "era": 2660,
      "Ġnotice": 2661,
      "Ġconfident": 2662,
      "Ġred": 2663,
      "Ġdiscourse": 2664,
      "ler": 2665,
      "Ġmach": 2666,
      "peci": 2667,
      "Ġdoesn": 2668,
      "Ġfw": 2669,
      "Ġregarding": 2670,
      "uf": 2671,
      "xx": 2672,
      "Ġseems": 2673,
      "Ġtexas": 2674,
      "45": 2675,
      "Ġant": 2676,
      "rial": 2677,
      "ured": 2678,
      "Ġassets": 2679,
      "Ġapplications": 2680,
      "elcome": 2681,
      "Ġformat": 2682,
      "lick": 2683,
      "na": 2684,
      "Ġperiod": 2685,
      "pri": 2686,
      "-----": 2687,
      "undred": 2688,
      "Ġ36": 2689,
      "Ġmorph": 2690,
      "35": 2691,
      "gm": 2692,
      "21": 2693,
      "Ġrates": 2694,
      "Ġappear": 2695,
      "Ġlik": 2696,
      "Ġaway": 2697,
      "idge": 2698,
      "ĊĠĠĠĠĠĠ": 2699,
      "ING": 2700,
      "Ġannounce": 2701,
      "Ġsingle": 2702,
      "Ġtogether": 2703,
      "ĠURL": 2704,
      "Ġstudies": 2705,
      "AC": 2706,
      "70": 2707,
      "Ġcoun": 2708,
      "Ġunsubscribe": 2709,
      "Ġnothing": 2710,
      "Ġhear": 2711,
      "ounds": 2712,
      "46": 2713,
      "spamassassin": 2714,
      "Ġstreet": 2715,
      "Ġdecember": 2716,
      "body": 2717,
      "Ġaust": 2718,
      "Ġcs": 2719,
      "Ġusers": 2720,
      "oph": 2721,
      "Ġcalled": 2722,
      "Ġincrease": 2723,
      "75": 2724,
      "lin": 2725,
      "Ġactually": 2726,
      "Ġearly": 2727,
      "Ġvarious": 2728,
      "Ġdocument": 2729,
      "Ġmichael": 2730,
      "time": 2731,
      "Ġreserved": 2732,
      "Ġprobably": 2733,
      "Ġ2005": 2734,
      "Ġroom": 2735,
      "Ġpolic": 2736,
      "Ġincome": 2737,
      "Ġeduc": 2738,
      "Ġsen": 2739,
      "Ġfield": 2740,
      "Ġbri": 2741,
      "Ġtuesday": 2742,
      "Ġfed": 2743,
      "Ġcustomer": 2744,
      "Ġmind": 2745,
      "Ġcommunications": 2746,
      "Ġabstracts": 2747,
      "Ġlon": 2748,
      "imin": 2749,
      "ĠRE": 2750,
      "Ġadvice": 2751,
      "Ġprotect": 2752,
      "Ġcanada": 2753,
      "Ġbring": 2754,
      "atory": 2755,
      "comp": 2756,
      "Ġfirm": 2757,
      "Ġorganiz": 2758,
      "cs": 2759,
      "Ġprevious": 2760,
      "Ġparticipants": 2761,
      "aff": 2762,
      "lied": 2763,
      "Ġenter": 2764,
      "rp": 2765,
      "Ġbal": 2766,
      "ĠAnd": 2767,
      "itted": 2768,
      "Ġpackage": 2769,
      "Ġimmediately": 2770,
      "Ġtarget": 2771,
      "Ġcd": 2772,
      "ello": 2773,
      "Ġupon": 2774,
      "ĠBut": 2775,
      "------------------------------------------------": 2776,
      "Ġjeff": 2777,
      "clus": 2778,
      "Ġremember": 2779,
      "Ġproduction": 2780,
      "ump": 2781,
      "ournal": 2782,
      "ĠAmeric": 2783,
      "fort": 2784,
      "you": 2785,
      "ero": 2786,
      "cle": 2787,
      "Ġforeign": 2788,
      "Ġrather": 2789,
      "Ġexpected": 2790,
      "09": 2791,
      "Ġphil": 2792,
      "know": 2793,
      "Ġfix": 2794,
      "ster": 2795,
      "Ġcompar": 2796,
      "Ġneeded": 2797,
      "fully": 2798,
      "off": 2799,
      "Ġcond": 2800,
      "Ġfu": 2801,
      "ita": 2802,
      "Ġspok": 2803,
      "Ġoperations": 2804,
      "Ġreference": 2805,
      "ete": 2806,
      "Ġmeans": 2807,
      "Ġclose": 2808,
      "Ġjanuary": 2809,
      "Ġprivate": 2810,
      "da": 2811,
      "ptions": 2812,
      "Ġnove": 2813,
      "Ġofficial": 2814,
      "Ġsocial": 2815,
      "IM": 2816,
      "ications": 2817,
      "iving": 2818,
      "ologies": 2819,
      "Ġsouth": 2820,
      "yle": 2821,
      "Ġeuropean": 2822,
      "Ġsponsored": 2823,
      "isc": 2824,
      "Ġplans": 2825,
      "Ġrespond": 2826,
      "ba": 2827,
      "Ġmass": 2828,
      "ape": 2829,
      "Ġsale": 2830,
      "utions": 2831,
      "Ġplus": 2832,
      "Ġsimilar": 2833,
      "Ġaccording": 2834,
      "ML": 2835,
      "ances": 2836,
      "Ġoptions": 2837,
      "Ġpp": 2838,
      "Ġhundred": 2839,
      "Ġaspect": 2840,
      "Ġlists": 2841,
      "ude": 2842,
      "Ġamong": 2843,
      "top": 2844,
      "Ġmeter": 2845,
      "Ġcommunication": 2846,
      "Ġnovember": 2847,
      "ival": 2848,
      "Ġcogn": 2849,
      "azor": 2850,
      "-------": 2851,
      "Ġcommission": 2852,
      "Ġcolor": 2853,
      "Ġmmbt": 2854,
      "col": 2855,
      "Ġmus": 2856,
      "Ġlive": 2857,
      "LE": 2858,
      "ĠĊĠ": 2859,
      "acity": 2860,
      "Ġfeature": 2861,
      "pend": 2862,
      "Ġprint": 2863,
      "Ġmiss": 2864,
      "Ġdig": 2865,
      "Ġassum": 2866,
      "Ġtitle": 2867,
      "85": 2868,
      "onst": 2869,
      "Ġbond": 2870,
      "oti": 2871,
      "phone": 2872,
      "Ġblack": 2873,
      "ey": 2874,
      "Ġsun": 2875,
      "ĠYour": 2876,
      "side": 2877,
      "Ġoption": 2878,
      "Ġcorrect": 2879,
      "'d": 2880,
      "xent": 2881,
      "aken": 2882,
      "Ġprofit": 2883,
      "Ġasked": 2884,
      "face": 2885,
      "Â¼": 2886,
      "Ġdaily": 2887,
      "Ġsubmission": 2888,
      "Ġpresentation": 2889,
      "Spamassassin": 2890,
      "cm": 2891,
      "with": 2892,
      "Ġredu": 2893,
      "works": 2894,
      "++++++++": 2895,
      "fl": 2896,
      "Ġbor": 2897,
      "Ġees": 2898,
      "Ġincluded": 2899,
      "Ġstatus": 2900,
      "Ġtrying": 2901,
      "Ġcir": 2902,
      "Ġmac": 2903,
      "Ġleft": 2904,
      "rench": 2905,
      "ĠĊĠĠĠ": 2906,
      "anc": 2907,
      "Ġspeakers": 2908,
      "Ġhistory": 2909,
      "Ġgrowth": 2910,
      "Ġwall": 2911,
      "ulation": 2912,
      "Ġcommon": 2913,
      "Ġmorning": 2914,
      "Ġā": 2915,
      "Ġtick": 2916,
      "Ġfee": 2917,
      "oman": 2918,
      "Ġmatter": 2919,
      "empt": 2920,
      "Ġactual": 2921,
      "Ġpayment": 2922,
      "Ġofficer": 2923,
      "Date": 2924,
      "den": 2925,
      "oint": 2926,
      "Ġcateg": 2927,
      "ently": 2928,
      "Ġ2004": 2929,
      "subscription": 2930,
      "Ġmmbtu": 2931,
      "Ġcat": 2932,
      "ij": 2933,
      "mission": 2934,
      "zor": 2935,
      "Ġdiscl": 2936,
      "Ġschedul": 2937,
      "Ġmart": 2938,
      "edia": 2939,
      "viron": 2940,
      "Ġseen": 2941,
      "Ġsites": 2942,
      "eed": 2943,
      "rpm": 2944,
      "Ã¤": 2945,
      "Ġfill": 2946,
      "itten": 2947,
      "Ġitem": 2948,
      "Ġyourself": 2949,
      "Ġdesk": 2950,
      "Ġhistor": 2951,
      "avor": 2952,
      "lands": 2953,
      "Ġgerman": 2954,
      "Ġconfirm": 2955,
      "fect": 2956,
      "Ġwindows": 2957,
      "Ġrecomm": 2958,
      "Ġlay": 2959,
      "that": 2960,
      "Ġdear": 2961,
      "agra": 2962,
      "gs": 2963,
      "Ġworth": 2964,
      "Ġability": 2965,
      "Ġfunds": 2966,
      "Ġreceiving": 2967,
      "ĠTHE": 2968,
      "Ġinteg": 2969,
      "wards": 2970,
      "Ġeveryone": 2971,
      "ios": 2972,
      "ym": 2973,
      "Ġfive": 2974,
      "Ġseek": 2975,
      "Ġsignific": 2976,
      "Ġnecessary": 2977,
      "ators": 2978,
      "Ġadminist": 2979,
      "Ġincludes": 2980,
      "Ġbuild": 2981,
      "Ġengine": 2982,
      "Ġcreate": 2983,
      "OL": 2984,
      "Ġpred": 2985,
      "ask": 2986,
      "Ġdecid": 2987,
      "Ġidea": 2988,
      "Ġlatest": 2989,
      "Ġcra": 2990,
      "Ġna": 2991,
      "Ġexact": 2992,
      "Ġeval": 2993,
      "ĠUsers": 2994,
      "60": 2995,
      "oose": 2996,
      "rict": 2997,
      "Ġrating": 2998,
      "Ġbasis": 2999,
      "It": 3000,
      "Ġready": 3001,
      "Ġ...": 3002,
      "Ġpra": 3003,
      "anish": 3004,
      "arent": 3005,
      "Ġlonger": 3006,
      "39": 3007,
      "Ġess": 3008,
      "Ġnl": 3009,
      "ĊĠĠĠĠĠĠĠĠĠ": 3010,
      "Ġilug": 3011,
      "DA": 3012,
      "Ġvide": 3013,
      "Ġareas": 3014,
      "Ġshall": 3015,
      "bu": 3016,
      "Ã§": 3017,
      "ĠQ": 3018,
      "Ġtold": 3019,
      "Ġdirectory": 3020,
      "Ġdidn": 3021,
      "Ġmaintainer": 3022,
      "Ġdeadline": 3023,
      "cast": 3024,
      "ties": 3025,
      "Ġpal": 3026,
      "Ġreven": 3027,
      "87": 3028,
      "my": 3029,
      "talk": 3030,
      "urance": 3031,
      "verage": 3032,
      "ĠTe": 3033,
      "des": 3034,
      "font": 3035,
      "ises": 3036,
      "ĠAs": 3037,
      "rpms": 3038,
      ",\"": 3039,
      "ÆĴ": 3040,
      "ĠĠĠĠĠĠ": 3041,
      "ĠAll": 3042,
      "Ġadded": 3043,
      "Ġlistmaster": 3044,
      "Ġentire": 3045,
      "mer": 3046,
      "Ġbad": 3047,
      "Ġ34": 3048,
      "Ġarch": 3049,
      "many": 3050,
      "va": 3051,
      "cip": 3052,
      "Ġcause": 3053,
      "aut": 3054,
      "Ġplac": 3055,
      "ham": 3056,
      "ift": 3057,
      "duction": 3058,
      "Ġmanager": 3059,
      "Ġcomments": 3060,
      "Ġpaul": 3061,
      "ma": 3062,
      "zz": 3063,
      "Ġcore": 3064,
      "Ġmen": 3065,
      "fork": 3066,
      "Ġlinks": 3067,
      "Ġwilliam": 3068,
      "Ġrecently": 3069,
      "wide": 3070,
      "Ġprojects": 3071,
      "02": 3072,
      "Ġ???": 3073,
      "Ġsubmit": 3074,
      "DER": 3075,
      "Ġnewsletter": 3076,
      "Ġsubmissions": 3077,
      "ker": 3078,
      "Ġhalf": 3079,
      "::": 3080,
      "Ġsam": 3081,
      "asing": 3082,
      "Ġintended": 3083,
      "Ġtrack": 3084,
      "Ġwanted": 3085,
      "Ġden": 3086,
      "ĠBe": 3087,
      "new": 3088,
      "\\/": 3089,
      "cont": 3090,
      "Ġhealth": 3091,
      "Ġcult": 3092,
      "itation": 3093,
      "though": 3094,
      "Ġrunning": 3095,
      "Ġdelivery": 3096,
      "Ġexecutive": 3097,
      "Ġtem": 3098,
      "Ġpills": 3099,
      "aries": 3100,
      "Ġindex": 3101,
      "more": 3102,
      "pre": 3103,
      "Ġmakes": 3104,
      "Ġena": 3105,
      "Ġverb": 3106,
      "Ġcapacity": 3107,
      "08": 3108,
      "Ġproceed": 3109,
      "imes": 3110,
      "umb": 3111,
      "ruary": 3112,
      "bsp": 3113,
      "part": 3114,
      "Ġten": 3115,
      "Ġjournal": 3116,
      "Ġtrust": 3117,
      "lier": 3118,
      "Ġphys": 3119,
      "Ġfunct": 3120,
      "ued": 3121,
      "Ġjud": 3122,
      "action": 3123,
      "Ġsending": 3124,
      "Ġeverything": 3125,
      "Ġcomb": 3126,
      "Ex": 3127,
      "ault": 3128,
      "Ġlic": 3129,
      "Irish": 3130,
      "oot": 3131,
      "resp": 3132,
      "cript": 3133,
      "ĠÃ¯": 3134,
      "Ġconcept": 3135,
      "Ġload": 3136,
      "cies": 3137,
      "Ġ49": 3138,
      "dom": 3139,
      "gress": 3140,
      "Ġsources": 3141,
      "Ġalong": 3142,
      "Ġdecl": 3143,
      "Ġcontext": 3144,
      "Ġtransactions": 3145,
      "77": 3146,
      "Ġbur": 3147,
      "Ġwrong": 3148,
      "osure": 3149,
      "Ġelectronic": 3150,
      "Ġpick": 3151,
      "Ġdi": 3152,
      "Ġenviron": 3153,
      "44": 3154,
      "Ġmax": 3155,
      "ĠSp": 3156,
      "mark": 3157,
      "Ġwhole": 3158,
      "ÂģÂ": 3159,
      "Ġsignificant": 3160,
      "ha": 3161,
      "Ġsin": 3162,
      "Ġpan": 3163,
      "ouse": 3164,
      "ental": 3165,
      "Ġargu": 3166,
      "~~~~": 3167,
      "Ġbuilding": 3168,
      "Ġlikely": 3169,
      "la": 3170,
      "Ġlib": 3171,
      "quir": 3172,
      "ĠEn": 3173,
      "Ġlearning": 3174,
      "Ġcorporate": 3175,
      "Ġnight": 3176,
      "Ġjul": 3177,
      "que": 3178,
      "thern": 3179,
      "reat": 3180,
      "Ġliter": 3181,
      "âĢŀ": 3182,
      "Ġgraph": 3183,
      "known": 3184,
      "Ġaim": 3185,
      "Ġface": 3186,
      "Ġinn": 3187,
      "Ġorg": 3188,
      "anced": 3189,
      "hor": 3190,
      "Ġpie": 3191,
      "Ġtermin": 3192,
      "wr": 3193,
      "Ġdbc": 3194,
      "click": 3195,
      "Ġprem": 3196,
      "oom": 3197,
      "Ġfol": 3198,
      "Ġlines": 3199,
      "Ġrole": 3200,
      "Ġsummary": 3201,
      "Ġsemantics": 3202,
      "Ġdbcaps": 3203,
      "gen": 3204,
      "ĠIs": 3205,
      "Ġwid": 3206,
      "Ġpages": 3207,
      "Ġcontains": 3208,
      "Ġbankrupt": 3209,
      "Ġemployees": 3210,
      "Ġimprove": 3211,
      "ister": 3212,
      "Ġhouse": 3213,
      "Ġreported": 3214,
      "Ġconfidential": 3215,
      "\\/\\/": 3216,
      "VE": 3217,
      "Ġunited": 3218,
      "Ġtrue": 3219,
      "Ġsummer": 3220,
      "Ġbulk": 3221,
      "ilug": 3222,
      "Ġund": 3223,
      "Ġinstitute": 3224,
      "Ġang": 3225,
      "ĠAl": 3226,
      "Ġoperating": 3227,
      "Ġmulti": 3228,
      "Ġindepend": 3229,
      "freshrpms": 3230,
      "SE": 3231,
      "Ġlose": 3232,
      "ication": 3233,
      "ĠCD": 3234,
      "Ġthousands": 3235,
      "vant": 3236,
      "Ġunit": 3237,
      "Ġknown": 3238,
      "$$$$": 3239,
      "\",": 3240,
      "Ġcand": 3241,
      "ata": 3242,
      "Ġsecret": 3243,
      "Ġfebruary": 3244,
      "NET": 3245,
      "band": 3246,
      "dle": 3247,
      "vd": 3248,
      "Ġdirectly": 3249,
      "Ġdefin": 3250,
      "Ġpipeline": 3251,
      "On": 3252,
      "lu": 3253,
      "Ġhold": 3254,
      "Ġclos": 3255,
      "Ġinvited": 3256,
      "Ġremain": 3257,
      "Ġinstead": 3258,
      "07": 3259,
      "Ġfig": 3260,
      "Ġcontracts": 3261,
      "Ġequity": 3262,
      "apt": 3263,
      "ctor": 3264,
      "ĠNo": 3265,
      "Ġflow": 3266,
      "Ġmike": 3267,
      "Ġside": 3268,
      "Ġquite": 3269,
      "Ġfinance": 3270,
      "Ġmultip": 3271,
      "Ġmachine": 3272,
      "Ġaltern": 3273,
      "ĠWindows": 3274,
      "Ġpublished": 3275,
      "Ġbob": 3276,
      "Ġstuff": 3277,
      "Ġextra": 3278,
      "pecially": 3279,
      "atically": 3280,
      "Ġwind": 3281,
      "Ġdiv": 3282,
      "Ġlower": 3283,
      "Ġsuccessful": 3284,
      "sych": 3285,
      "px": 3286,
      "Ġtal": 3287,
      "usiness": 3288,
      "Ġtelephone": 3289,
      "gi": 3290,
      "igence": 3291,
      "imal": 3292,
      "Ġunc": 3293,
      "Ġanswer": 3294,
      "76": 3295,
      "Ġconsult": 3296,
      "Ġcharge": 3297,
      "fs": 3298,
      "uck": 3299,
      "Ġbooks": 3300,
      "Ġnotes": 3301,
      "Ġwriting": 3302,
      "Ġcosts": 3303,
      "Ġiso": 3304,
      "Ġsteve": 3305,
      "Ġcounter": 3306,
      "Ġcy": 3307,
      "Ġrecord": 3308,
      "Ġwritten": 3309,
      "Ġsix": 3310,
      "Ġkitch": 3311,
      "Ġ32": 3312,
      "Ġfederal": 3313,
      "Ġsan": 3314,
      "Ġjames": 3315,
      "Ġrob": 3316,
      "ĠThey": 3317,
      "31": 3318,
      "gate": 3319,
      "rit": 3320,
      "ino": 3321,
      "reci": 3322,
      "Ġbody": 3323,
      "Ġlunch": 3324,
      "Ġfeatures": 3325,
      "Ġconsidered": 3326,
      "ength": 3327,
      "âĤ¬Â¢": 3328,
      "Ġnormal": 3329,
      "td": 3330,
      "orn": 3331,
      "Ġprim": 3332,
      "Ġmary": 3333,
      "Ġlargest": 3334,
      "De": 3335,
      "Ġple": 3336,
      "estern": 3337,
      "ablish": 3338,
      "Ġrecogn": 3339,
      "Ġtab": 3340,
      "Ġcame": 3341,
      "Ġcomment": 3342,
      "ĠSh": 3343,
      "Ġkitchen": 3344,
      "Ġsort": 3345,
      "atical": 3346,
      "Ġmot": 3347,
      "Ġmentioned": 3348,
      "rast": 3349,
      "Ġlos": 3350,
      "Ġtravel": 3351,
      "ĠĠĠĠĠĠĠĠĠĠĠĠĠĠĠĠĠĠĠĠĠĠĠĠ": 3352,
      "Ġstarted": 3353,
      "Ġexamples": 3354,
      "PL": 3355,
      "Ġlisted": 3356,
      "Ġregistered": 3357,
      "Ġchairman": 3358,
      "orge": 3359,
      "olution": 3360,
      "Ġfriends": 3361,
      "Ġdeb": 3362,
      "Ġperfect": 3363,
      "ĠNet": 3364,
      "Ġimplement": 3365,
      "Ġtools": 3366,
      "Ġmicrosoft": 3367,
      "Ġhost": 3368,
      "Ġeast": 3369,
      "Ġreli": 3370,
      "32": 3371,
      "oura": 3372,
      "Ġens": 3373,
      "erve": 3374,
      "Ġdaren": 3375,
      "Ġlost": 3376,
      "ury": 3377,
      "anding": 3378,
      "ava": 3379,
      "iction": 3380,
      "Ġnegoti": 3381,
      "49": 3382,
      "Ġalmost": 3383,
      "âĢ¢": 3384,
      "********************************": 3385,
      "Ġmag": 3386,
      "Ġ47": 3387,
      "uc": 3388,
      "Ġsold": 3389,
      "Ġles": 3390,
      "Ġseries": 3391,
      "ficult": 3392,
      "tr": 3393,
      "ĠÃ¢": 3394,
      "Ġpen": 3395,
      "Ġmit": 3396,
      "Ġreach": 3397,
      "uses": 3398,
      "Ġcopies": 3399,
      "Ġdrive": 3400,
      "Ġill": 3401,
      "Ġgold": 3402,
      "ived": 3403,
      "Ġshir": 3404,
      "Ġphot": 3405,
      "AAAAAAAAAAAAAAAA": 3406,
      "Ġ39": 3407,
      "Ġpric": 3408,
      "Ġinvolved": 3409,
      "Com": 3410,
      "sa": 3411,
      "Ġtaking": 3412,
      "----------------------------------------------------------------": 3413,
      "Ġhappy": 3414,
      "ene": 3415,
      "Ġpsych": 3416,
      "Ġconvers": 3417,
      "oper": 3418,
      "Ġspanish": 3419,
      "Ġregul": 3420,
      "Ġreading": 3421,
      "ERE": 3422,
      "Ġnone": 3423,
      "Ġrat": 3424,
      "ĠMon": 3425,
      "âĦ": 3426,
      "Ġtur": 3427,
      "Ġtaken": 3428,
      "Ġfrench": 3429,
      "Ġcoming": 3430,
      "Ġguarantee": 3431,
      "âĦ¢": 3432,
      "rs": 3433,
      "orm": 3434,
      "Ġmal": 3435,
      "Ġunknown": 3436,
      "Ġacross": 3437,
      "âĢ¹": 3438,
      "Ġdifficult": 3439,
      "pret": 3440,
      "Ġbott": 3441,
      "etic": 3442,
      "Ġrange": 3443,
      "Ġpoints": 3444,
      "89": 3445,
      "Ġwil": 3446,
      "ĠOr": 3447,
      "Ġconsum": 3448,
      "wa": 3449,
      "Ġaverage": 3450,
      "arr": 3451,
      "istic": 3452,
      "Ġintell": 3453,
      "Ġpolicy": 3454,
      "Ġbankruptcy": 3455,
      "Ġmember": 3456,
      "oles": 3457,
      "Ġ1997": 3458,
      "Ġadvertis": 3459,
      "ĠĊĠĠĠĠĠ": 3460,
      "Ġwide": 3461,
      "Ġbon": 3462,
      "Ġantic": 3463,
      "Ġvari": 3464,
      "66": 3465,
      "Ġfarm": 3466,
      "Ġnov": 3467,
      "Â°": 3468,
      "Ġcross": 3469,
      "Ġpron": 3470,
      "uters": 3471,
      "Ġvan": 3472,
      "terday": 3473,
      "ĠThere": 3474,
      "Ġoperation": 3475,
      "Ġtranslation": 3476,
      "Ġwire": 3477,
      "Ġshar": 3478,
      "Ġformer": 3479,
      "Ġjoin": 3480,
      "Ġapproved": 3481,
      "Ġopin": 3482,
      "ĠSe": 3483,
      "Ġestablish": 3484,
      "Ġwonder": 3485,
      "do": 3486,
      "Ġcit": 3487,
      "eth": 3488,
      "Ġshop": 3489,
      "Ġopportunities": 3490,
      "Ġshipping": 3491,
      "-------------------------------------------------------": 3492,
      ":>": 3493,
      "nam": 3494,
      "za": 3495,
      "Ġau": 3496,
      "reen": 3497,
      "Ġkern": 3498,
      "Ġobl": 3499,
      "Ġcompleted": 3500,
      "Ġenvironment": 3501,
      "US": 3502,
      "Ġstaff": 3503,
      "Ġvo": 3504,
      "amp": 3505,
      "ĠHow": 3506,
      "obile": 3507,
      "Ġdecision": 3508,
      "wise": 3509,
      "Ġful": 3510,
      "Ġoo": 3511,
      "Ġ33": 3512,
      "Ġappreci": 3513,
      "vs": 3514,
      "ett": 3515,
      "ĠPer": 3516,
      "Ġcomputational": 3517,
      "Ġearnings": 3518,
      "Ġhom": 3519,
      "Ġacad": 3520,
      "Ġagree": 3521,
      "Ġbrand": 3522,
      "Ġannounced": 3523,
      "orial": 3524,
      "Ġhon": 3525,
      "ids": 3526,
      "Ġjun": 3527,
      "Ġfront": 3528,
      "ĠHe": 3529,
      "Ġtechnical": 3530,
      "Ġrequirements": 3531,
      "Ġlexical": 3532,
      "Ġinstructions": 3533,
      "ĠZ": 3534,
      "Ġ65": 3535,
      "Ġappropri": 3536,
      "Ġearlier": 3537,
      "-=-=-=-=": 3538,
      "Ġwomen": 3539,
      "Ġlove": 3540,
      "Ġey": 3541,
      "Ġstudent": 3542,
      "Ġmedia": 3543,
      "Â¸": 3544,
      "Ġoften": 3545,
      "leg": 3546,
      "St": 3547,
      "Ġalthough": 3548,
      "Ġsepar": 3549,
      "play": 3550,
      "Ġgrant": 3551,
      "Ġanticip": 3552,
      "ded": 3553,
      "ches": 3554,
      "ĠDe": 3555,
      "################": 3556,
      "ively": 3557,
      "Ġpartnerships": 3558,
      "tc": 3559,
      "ystem": 3560,
      "Ã¨": 3561,
      "oration": 3562,
      "Ġdistribution": 3563,
      "Ġarticle": 3564,
      "elves": 3565,
      "ublic": 3566,
      "Ġfeed": 3567,
      "Ġattempt": 3568,
      "Ġyesterday": 3569,
      "47": 3570,
      "dis": 3571,
      "ĠThat": 3572,
      "Ġprovides": 3573,
      "Ġelectricity": 3574,
      "ians": 3575,
      "Ġtheore": 3576,
      "Ġforms": 3577,
      "ugs": 3578,
      "cription": 3579,
      "Ġstrateg": 3580,
      "Ġmom": 3581,
      "Ġrules": 3582,
      "aker": 3583,
      "Ġinvestor": 3584,
      "Ġattention": 3585,
      "can": 3586,
      "Ġhello": 3587,
      "Ġespecially": 3588,
      "Wh": 3589,
      "sf": 3590,
      "haps": 3591,
      "Ġstatement": 3592,
      "Ġcharact": 3593,
      "Ġrichard": 3594,
      "Ġir": 3595,
      "Ġcomes": 3596,
      "actic": 3597,
      "Ġadvant": 3598,
      "Ġaccepted": 3599,
      "Ġassistance": 3600,
      "Ġself": 3601,
      "Ġsense": 3602,
      "vey": 3603,
      "sec": 3604,
      "ects": 3605,
      "Ġcountries": 3606,
      "rey": 3607,
      "Ġbi": 3608,
      "Ġpopular": 3609,
      "ĠFree": 3610,
      "Ġbusinesses": 3611,
      "respond": 3612,
      "gl": 3613,
      "Ġfell": 3614,
      "Ġsecure": 3615,
      "Ġoccur": 3616,
      "Ġeducation": 3617,
      "Ġcandid": 3618,
      "Ġwi": 3619,
      "Ġpars": 3620,
      "ĠEx": 3621,
      "Ġcognitive": 3622,
      "hib": 3623,
      "ray": 3624,
      "stant": 3625,
      "Ġalias": 3626,
      "Ġapply": 3627,
      "ĠUnited": 3628,
      "Ġvideo": 3629,
      "Ġcents": 3630,
      "Ġbud": 3631,
      "Ġhig": 3632,
      "0000": 3633,
      "imum": 3634,
      "Ġken": 3635,
      "Ġretail": 3636,
      "Spam": 3637,
      "ĠNew": 3638,
      "Ġcollege": 3639,
      "Ġic": 3640,
      "Ġtakes": 3641,
      "Ġreuters": 3642,
      "Ġinterpret": 3643,
      "65": 3644,
      "âĢĿ": 3645,
      "Ġsituation": 3646,
      "Ġgermany": 3647,
      "05": 3648,
      "AD": 3649,
      "ients": 3650,
      "rahead": 3651,
      "Ġsum": 3652,
      "ieve": 3653,
      "Ġhourahead": 3654,
      "joy": 3655,
      "Ġaward": 3656,
      "Ġdeg": 3657,
      "itional": 3658,
      "Ġleading": 3659,
      "Ġphonology": 3660,
      "ming": 3661,
      "Ġsil": 3662,
      "Ġstory": 3663,
      "ordin": 3664,
      "ĠStates": 3665,
      "oe": 3666,
      "ĠMy": 3667,
      "Ġuseful": 3668,
      "Ġavoid": 3669,
      "Åł": 3670,
      "Ġach": 3671,
      "online": 3672,
      "Ġstan": 3673,
      "rie": 3674,
      "ĠPl": 3675,
      "âĢĶ": 3676,
      "Ġgroups": 3677,
      "Ġitems": 3678,
      "pose": 3679,
      "Ġ37": 3680,
      "Ġ300": 3681,
      "Ġdocuments": 3682,
      "Ġhuge": 3683,
      "Ġsound": 3684,
      "asp": 3685,
      "Ġkevin": 3686,
      "Ġeasily": 3687,
      "ground": 3688,
      "Ġchildren": 3689,
      "mit": 3690,
      "Ġmatch": 3691,
      "Ġnice": 3692,
      "Ġplat": 3693,
      "Ġsyn": 3694,
      "Ġexactly": 3695,
      "sid": 3696,
      "tical": 3697,
      "Ġcell": 3698,
      "Ġlength": 3699,
      "Ġselling": 3700,
      "Ġdomain": 3701,
      "TH": 3702,
      "Ã£ÆĴ": 3703,
      "Ġrisks": 3704,
      "........": 3705,
      "Ġencoura": 3706,
      "Ġhistorical": 3707,
      "Ġuncertain": 3708,
      "Ġprep": 3709,
      "Ġposted": 3710,
      "Ġok": 3711,
      "Ġsociety": 3712,
      "LY": 3713,
      "just": 3714,
      "Ġep": 3715,
      "ides": 3716,
      "ĠIS": 3717,
      "Ġtransport": 3718,
      "Ġpositions": 3719,
      "Ġformal": 3720,
      "Ġdemand": 3721,
      "Ġsupply": 3722,
      "ald": 3723,
      "ico": 3724,
      "elle": 3725,
      "Ġcomplex": 3726,
      "Ġregular": 3727,
      "Ġsett": 3728,
      "Ġinitial": 3729,
      "Ġaware": 3730,
      "orrow": 3731,
      "Ġmel": 3732,
      "Ġdan": 3733,
      "ĊĠĠĠĠĠĠĠĠĠĠĠĠĠĠĠĠ": 3734,
      "bb": 3735,
      "ken": 3736,
      "Ġtd": 3737,
      "real": 3738,
      "Ġattend": 3739,
      "Ġtopics": 3740,
      "Ġanalysts": 3741,
      "Ġexisting": 3742,
      "Ġacadem": 3743,
      "aven": 3744,
      "nome": 3745,
      "used": 3746,
      "Ġprogramme": 3747,
      "Ġconflic": 3748,
      "Ġstarting": 3749,
      "Ġsharehol": 3750,
      "\".": 3751,
      "PS": 3752,
      "Ġthom": 3753,
      "Ġtook": 3754,
      "Ġ48": 3755,
      "inson": 3756,
      "lim": 3757,
      "ref": 3758,
      "Ġbase": 3759,
      "ortg": 3760,
      "ĠOF": 3761,
      "Ġideas": 3762,
      "Ġviagra": 3763,
      "bol": 3764,
      "serv": 3765,
      "ffic": 3766,
      "ĠWhat": 3767,
      "ĠNot": 3768,
      "Ġsolid": 3769,
      "Ġselected": 3770,
      "iver": 3771,
      "Ġspeed": 3772,
      "Ġschedules": 3773,
      "100": 3774,
      "Ġlight": 3775,
      "Ġobtain": 3776,
      "Ġannual": 3777,
      "burg": 3778,
      "dr": 3779,
      "Ġii": 3780,
      "Ġcharg": 3781,
      "Ġtherefore": 3782,
      "Ġinteresting": 3783,
      "Ġsmith": 3784,
      "Ġpublication": 3785,
      "Ġsessions": 3786,
      "Ġruss": 3787,
      "Ġchoose": 3788,
      "Ġemer": 3789,
      "Ġcheap": 3790,
      "Ġapproval": 3791,
      "lor": 3792,
      "Ġstyle": 3793,
      "Ġdepos": 3794,
      "ĠPC": 3795,
      "Ġdiscount": 3796,
      "Ġlaws": 3797,
      "Ġdiscussions": 3798,
      "Ġcorporation": 3799,
      "Ġrecommend": 3800,
      "ÅĴ": 3801,
      "Ġsav": 3802,
      "Ġattack": 3803,
      "Ġbalance": 3804,
      "Ġhigher": 3805,
      "orpor": 3806,
      "Ġham": 3807,
      "38": 3808,
      "GE": 3809,
      "rel": 3810,
      "Ġpain": 3811,
      "Ġfa": 3812,
      "Ġyoung": 3813,
      "opy": 3814,
      "ĠAt": 3815,
      "Ġclient": 3816,
      "Ġtried": 3817,
      "Ġunderstanding": 3818,
      "Ġdecided": 3819,
      "ned": 3820,
      "Ġclosed": 3821,
      "Ġ85": 3822,
      "Ġadvis": 3823,
      "Ġprofessor": 3824,
      "Ġfastow": 3825,
      "Ġmethods": 3826,
      "Ġjapanese": 3827,
      "ua": 3828,
      "Ġquant": 3829,
      "Ġcamp": 3830,
      "ta": 3831,
      "ona": 3832,
      "isa": 3833,
      "Ġque": 3834,
      "Ġ800": 3835,
      "Ġtraining": 3836,
      "Ġaccounting": 3837,
      "Ġtopic": 3838,
      "Ġauthors": 3839,
      "Ġacceptance": 3840,
      "ATION": 3841,
      "Ġshirley": 3842,
      "AB": 3843,
      "based": 3844,
      "umes": 3845,
      "Ġ57": 3846,
      "Ġcentral": 3847,
      "Ġchanged": 3848,
      "Ġhotel": 3849,
      "ĠCan": 3850,
      "cerely": 3851,
      "Ġwait": 3852,
      "Ġsn": 3853,
      "Ġwent": 3854,
      "Ġny": 3855,
      "Ġnation": 3856,
      "asure": 3857,
      "Ġchance": 3858,
      "pped": 3859,
      "Ġoutside": 3860,
      "Ġindividuals": 3861,
      "Ġindependent": 3862,
      "For": 3863,
      "Ġmis": 3864,
      "ari": 3865,
      "ots": 3866,
      "Ġdiscover": 3867,
      "Ġmultiple": 3868,
      "NC": 3869,
      "ago": 3870,
      "Ġliqu": 3871,
      "ĠHere": 3872,
      "text": 3873,
      "box": 3874,
      "Ġappropriate": 3875,
      "log": 3876,
      "vest": 3877,
      "orld": 3878,
      "Ġdie": 3879,
      "Ġitself": 3880,
      "itting": 3881,
      "Ġgeneration": 3882,
      "Ġpolitical": 3883,
      "Ġefforts": 3884,
      "Ġwelcome": 3885,
      "Ġdut": 3886,
      "Ġeb": 3887,
      "tery": 3888,
      "essage": 3889,
      "sequ": 3890,
      "redhat": 3891,
      "Ġrad": 3892,
      "Ġgreg": 3893,
      "Ġdeter": 3894,
      "Ġcreated": 3895,
      "Ġdraft": 3896,
      "well": 3897,
      "men": 3898,
      "rate": 3899,
      "ille": 3900,
      "roll": 3901,
      "olinguist": 3902,
      "Ġcla": 3903,
      "Ġtrader": 3904,
      "Ġsenior": 3905,
      "64": 3906,
      "bn": 3907,
      "Ġhall": 3908,
      "Ġgain": 3909,
      "Ġenjoy": 3910,
      "Ġchris": 3911,
      "ĠYOUR": 3912,
      "bm": 3913,
      "oh": 3914,
      "ole": 3915,
      "Ëľ": 3916,
      "Ġfavor": 3917,
      "eter": 3918,
      "Ġgir": 3919,
      "ender": 3920,
      "Ġimpl": 3921,
      "ĠNow": 3922,
      "Ġbloom": 3923,
      "Ġoffering": 3924,
      "Ġinvolve": 3925,
      "Ġceo": 3926,
      "37": 3927,
      "OP": 3928,
      "Ġtable": 3929,
      "Ġpas": 3930,
      "izing": 3931,
      "Ġcorrespond": 3932,
      "duate": 3933,
      "oking": 3934,
      "Ġaspects": 3935,
      "cal": 3936,
      "ores": 3937,
      "vis": 3938,
      "ËĨ": 3939,
      "Ġspace": 3940,
      "Ġmailings": 3941,
      "Ġarrange": 3942,
      "Ġannouncement": 3943,
      "MA": 3944,
      "bre": 3945,
      "py": 3946,
      "Ġtag": 3947,
      "Ġpict": 3948,
      "iety": 3949,
      "Ġconcerns": 3950,
      "Ġdigital": 3951,
      "cf": 3952,
      "Ġfram": 3953,
      "aly": 3954,
      "illing": 3955,
      "ected": 3956,
      "ĠOS": 3957,
      "Ġrock": 3958,
      "Ġlocation": 3959,
      "Ġbenj": 3960,
      "Ġsally": 3961,
      "Ġnotification": 3962,
      "Ġdepend": 3963,
      "Ġmartin": 3964,
      "))": 3965,
      "rc": 3966,
      "imate": 3967,
      "Ġcommod": 3968,
      "ORT": 3969,
      "Ġmusic": 3970,
      "DQ": 3971,
      "Ġways": 3972,
      "Ġ59": 3973,
      "Ġloan": 3974,
      "dd": 3975,
      "Ġ38": 3976,
      "Ġpret": 3977,
      "ingual": 3978,
      "Ġ1994": 3979,
      "inese": 3980,
      "Ġfactors": 3981,
      "Ġexpectations": 3982,
      "Ġreferences": 3983,
      "Ġvirt": 3984,
      "HT": 3985,
      "oke": 3986,
      "Ã©": 3987,
      "Ġdin": 3988,
      "word": 3989,
      "Ġconfidence": 3990,
      "vi": 3991,
      "ÂŃ": 3992,
      "Ġalloc": 3993,
      "Ġleave": 3994,
      "Ġheard": 3995,
      "Ġplant": 3996,
      "Ġinvesting": 3997,
      "ĠInc": 3998,
      "Ġreflect": 3999,
      "Re": 4000,
      "Razor": 4001,
      "ae": 4002,
      "fol": 4003,
      "Ġox": 4004,
      "Ġspread": 4005,
      "Ġsubmitted": 4006,
      "Net": 4007,
      "So": 4008,
      "iled": 4009,
      "ĠAug": 4010,
      "Ġclaims": 4011,
      "Ġrelevant": 4012,
      "Ġadvantage": 4013,
      "Ġsand": 4014,
      "Ġmaster": 4015,
      "Ġcommunity": 4016,
      "Ġsolution": 4017,
      "Ġorganization": 4018,
      "Ġscient": 4019,
      "itz": 4020,
      "Ġenh": 4021,
      "urity": 4022,
      "Ġjack": 4023,
      "YW": 4024,
      "yahoo": 4025,
      "Ġtut": 4026,
      "Ġisn": 4027,
      "iger": 4028,
      "ĠNOT": 4029,
      "59": 4030,
      "oma": 4031,
      "ila": 4032,
      "think": 4033,
      "Ġgoes": 4034,
      "Ġmodels": 4035,
      "iques": 4036,
      "Ġproposed": 4037,
      "Ġgrowing": 4038,
      "Ġteaching": 4039,
      "Ġintrodu": 4040,
      "Ġcourt": 4041,
      "Or": 4042,
      "oi": 4043,
      "orry": 4044,
      "atics": 4045,
      "Ġwater": 4046,
      "Ġstore": 4047,
      "Ġkernel": 4048,
      "Ġopp": 4049,
      "Ġ400": 4050,
      "Ġorigin": 4051,
      "Ġgrammatical": 4052,
      "light": 4053,
      "your": 4054,
      "ICK": 4055,
      "Ġtalking": 4056,
      "ENT": 4057,
      "grade": 4058,
      "Ġthousand": 4059,
      "Ġfixed": 4060,
      "EX": 4061,
      "dam": 4062,
      "ception": 4063,
      "iff": 4064,
      "coming": 4065,
      "Ġapplied": 4066,
      "ĠDo": 4067,
      "Ġprogress": 4068,
      "Ġtechnologies": 4069,
      "Ġsemantic": 4070,
      "Ġbil": 4071,
      "Ġweight": 4072,
      "irst": 4073,
      "Ġ56": 4074,
      "Ġabsol": 4075,
      "Ġflo": 4076,
      "Ġserious": 4077,
      "Ġadvertising": 4078,
      "tra": 4079,
      "ette": 4080,
      "Ġvalid": 4081,
      "Ġnegative": 4082,
      "From": 4083,
      "UR": 4084,
      "dy": 4085,
      "Ġferc": 4086,
      "Ġwhose": 4087,
      "elling": 4088,
      "Ġmaybe": 4089,
      "Ġevidence": 4090,
      "Ġluck": 4091,
      "41": 4092,
      "itors": 4093,
      "Ġperhaps": 4094,
      "Ġworked": 4095,
      "Ġrequested": 4096,
      "Ġconstra": 4097,
      "Ġmillions": 4098,
      "Ġaustral": 4099,
      "Ġpragm": 4100,
      "Click": 4101,
      "look": 4102,
      "pen": 4103,
      "Â¤": 4104,
      "Ġpartner": 4105,
      "Ġdeveloped": 4106,
      "Ġworldwide": 4107,
      "room": 4108,
      "ĠSec": 4109,
      "ubject": 4110,
      "Ġsafe": 4111,
      "Ġgeorge": 4112,
      "Ġquickly": 4113,
      "bit": 4114,
      "ox": 4115,
      "Ġpenn": 4116,
      "Ġmobile": 4117,
      "Ġlooks": 4118,
      "urday": 4119,
      "Ġinterface": 4120,
      "Ġcoff": 4121,
      "Ġimpact": 4122,
      "Ġexplain": 4123,
      "ĠNews": 4124,
      "Ġgets": 4125,
      "iana": 4126,
      "Ġsusan": 4127,
      "Ġfunctional": 4128,
      "Ġou": 4129,
      "Ġtheoretical": 4130,
      "Ġcases": 4131,
      "isco": 4132,
      "arily": 4133,
      "Ġuses": 4134,
      "Ġ2003": 4135,
      "Ġreporting": 4136,
      "Ġafric": 4137,
      "Ġdefault": 4138,
      "ĠĊĠĠĠĠĠĠĠĠĠĠĠĠĠĠĠĠ": 4139,
      "Ġsyntactic": 4140,
      "cel": 4141,
      "ables": 4142,
      "ĠFOR": 4143,
      "Ġrelative": 4144,
      "Ġassociation": 4145,
      "ortgage": 4146,
      "84": 4147,
      "pc": 4148,
      "encies": 4149,
      "Ġchoice": 4150,
      "Ġfinally": 4151,
      "Ġapproxim": 4152,
      "Ġdescription": 4153,
      "Ġnative": 4154,
      "Ġ853": 4155,
      "ĠEmail": 4156,
      "Ġdesigned": 4157,
      "Ġestimates": 4158,
      "04": 4159,
      "AS": 4160,
      "Ġtraders": 4161,
      "prise": 4162,
      "Ġregister": 4163,
      "ipt": 4164,
      "ka": 4165,
      "size": 4166,
      "Ġreas": 4167,
      "ightings": 4168,
      "Ġperspect": 4169,
      "PC": 4170,
      "ogue": 4171,
      "Ġfees": 4172,
      "Ġcouple": 4173,
      "press": 4174,
      "Ġbid": 4175,
      "ĠPh": 4176,
      "Ġmodern": 4177,
      "Ġparticipate": 4178,
      "Ġdouble": 4179,
      "Ġfully": 4180,
      "set": 4181,
      "Ġtx": 4182,
      "Ġlect": 4183,
      "Ġvent": 4184,
      "ĠEd": 4185,
      "Ġhighly": 4186,
      "Ġtomorrow": 4187,
      "Ġconstruction": 4188,
      "Ġhundreds": 4189,
      "Ch": 4190,
      "Ġage": 4191,
      "Ġpath": 4192,
      "Ġfair": 4193,
      "Ġstay": 4194,
      "ĠAn": 4195,
      "ĠFrom": 4196,
      "ibly": 4197,
      "Ġagent": 4198,
      "Ġconsist": 4199,
      "Ġensure": 4200,
      "MB": 4201,
      "fa": 4202,
      "enter": 4203,
      "Ġgi": 4204,
      "enses": 4205,
      "Ġportland": 4206,
      "Ġmiddle": 4207,
      "Ġbrief": 4208,
      "ZX": 4209,
      "rary": 4210,
      "ried": 4211,
      "Un": 4212,
      "Ġum": 4213,
      "Ġusd": 4214,
      "Ġ54": 4215,
      "Ġtransmission": 4216,
      "inary": 4217,
      "Ġwal": 4218,
      "Ġba": 4219,
      "uth": 4220,
      "Ġsuite": 4221,
      "active": 4222,
      "ension": 4223,
      "ges": 4224,
      "hi": 4225,
      "sl": 4226,
      "Ġthus": 4227,
      "Ġquot": 4228,
      "Ġprinci": 4229,
      "rated": 4230,
      "ords": 4231,
      "Ġnam": 4232,
      "utely": 4233,
      "Ġchall": 4234,
      "formation": 4235,
      "Ġmyself": 4236,
      "Ġfollows": 4237,
      "Ġpattern": 4238,
      "Ġdraw": 4239,
      "NT": 4240,
      "gent": 4241,
      "mun": 4242,
      "aging": 4243,
      "Ġcontents": 4244,
      "Ġwashing": 4245,
      "Ġpoor": 4246,
      "Ġvolumes": 4247,
      "Ġconstit": 4248,
      "Ġhit": 4249,
      "Ġconven": 4250,
      "Ġguid": 4251,
      "Ġactivity": 4252,
      "fin": 4253,
      "itic": 4254,
      "perl": 4255,
      "ORDER": 4256,
      "Ġassociated": 4257,
      "Ġeconomic": 4258,
      "Ġbenefits": 4259,
      "color": 4260,
      "HR": 4261,
      "PORT": 4262,
      "cn": 4263,
      "zy": 4264,
      "Ġcro": 4265,
      "Ġ250": 4266,
      "Ġfrance": 4267,
      "Ġresume": 4268,
      "Ġtrou": 4269,
      "earch": 4270,
      "Ġblock": 4271,
      "Ġguide": 4272,
      "ufact": 4273,
      "mp": 4274,
      "orage": 4275,
      "eness": 4276,
      "Ġda": 4277,
      "ĠAND": 4278,
      "Ġremov": 4279,
      "Ġminute": 4280,
      "Ġproposal": 4281,
      "rick": 4282,
      "ÃŃ": 4283,
      "reh": 4284,
      "Ġwilling": 4285,
      "Ġ52": 4286,
      "Ġlisting": 4287,
      "ftware": 4288,
      "Ġxp": 4289,
      "Ġscott": 4290,
      "Ġmerger": 4291,
      "67": 4292,
      "book": 4293,
      "Ġrecip": 4294,
      "Ġvice": 4295,
      "Ġcalls": 4296,
      "Ġdemonst": 4297,
      "RPM": 4298,
      "west": 4299,
      "ÂĿ": 4300,
      "ĠĊĠĠĠĠĠĠĠ": 4301,
      "Ġhop": 4302,
      "Ġnbsp": 4303,
      "eting": 4304,
      "ership": 4305,
      "Ġjim": 4306,
      "Ġsaf": 4307,
      "ownload": 4308,
      "conf": 4309,
      "Ġclean": 4310,
      "Ġbenjamins": 4311,
      "Ġwashington": 4312,
      "ĠPr": 4313,
      "Ġemails": 4314,
      "Ġbasic": 4315,
      "Ġagreed": 4316,
      "Ġrevenue": 4317,
      "Ġfarmer": 4318,
      "Ġplatform": 4319,
      "69": 4320,
      "EL": 4321,
      "yi": 4322,
      "Ġdro": 4323,
      "Ġfort": 4324,
      "Ġvoice": 4325,
      "Ġunique": 4326,
      "ĠGet": 4327,
      "Ġotherwise": 4328,
      "like": 4329,
      "Ġconnection": 4330,
      "Ġtypes": 4331,
      "Ġpreferred": 4332,
      "pub": 4333,
      "Ġdream": 4334,
      "Ġign": 4335,
      "Ġphp": 4336,
      "Ġextract": 4337,
      "Ġpublisher": 4338,
      "Ġsatisf": 4339,
      "Ġopinion": 4340,
      ".)": 4341,
      "hall": 4342,
      "Ġdept": 4343,
      "Ġinvestments": 4344,
      "Ġassign": 4345,
      "Ġsaying": 4346,
      "Ġmoment": 4347,
      "LICK": 4348,
      "Ġsi": 4349,
      "Ġdest": 4350,
      "edom": 4351,
      "Ġchinese": 4352,
      "ĠGo": 4353,
      "Ġlimit": 4354,
      "bridge": 4355,
      "ography": 4356,
      "Ġsincerely": 4357,
      "Ġadvertisement": 4358,
      "Ġfeedback": 4359,
      "itate": 4360,
      "Ġwholes": 4361,
      "umn": 4362,
      "ĠON": 4363,
      "Ġwants": 4364,
      "Ġversions": 4365,
      "qqqq": 4366,
      "Ġbenefit": 4367,
      "GV": 4368,
      "free": 4369,
      "Ġfire": 4370,
      "Ġgary": 4371,
      "Ġvow": 4372,
      "iginal": 4373,
      "eme": 4374,
      "atever": 4375,
      "Ġmailto": 4376,
      "Ġlexic": 4377,
      "Ġbeginning": 4378,
      "Ġliquid": 4379,
      "Ġconstraint": 4380,
      "Ġland": 4381,
      "Ġgar": 4382,
      "Ġrice": 4383,
      "Ġchina": 4384,
      "key": 4385,
      "Ġimage": 4386,
      "ĠGu": 4387,
      "Ġsolutions": 4388,
      "Ġbonds": 4389,
      "RO": 4390,
      "fam": 4391,
      "Ġbed": 4392,
      "Ġjose": 4393,
      "Ġkim": 4394,
      "Ġchap": 4395,
      "ĠAr": 4396,
      "commod": 4397,
      "Ġparsing": 4398,
      "03": 4399,
      "Please": 4400,
      "ats": 4401,
      "Ġgame": 4402,
      "Ġheight": 4403,
      "Ġinsurance": 4404,
      "Ġproceedings": 4405,
      "how": 4406,
      "Ġlind": 4407,
      "Ġyahoo": 4408,
      "Ġones": 4409,
      "ivity": 4410,
      "Ġroad": 4411,
      "Ġinstant": 4412,
      "Ġderiv": 4413,
      "Ġautomatically": 4414,
      "Ġpricing": 4415,
      "from": 4416,
      "Ġmt": 4417,
      "aste": 4418,
      "Ġphr": 4419,
      "ĠRep": 4420,
      "ĠHERE": 4421,
      "ĠInd": 4422,
      "Ġcorpus": 4423,
      "Ġobvious": 4424,
      "Ġalternative": 4425,
      "Ġcharacter": 4426,
      "dl": 4427,
      "Ġpc": 4428,
      "amb": 4429,
      "Ġaccommod": 4430,
      "Ġimag": 4431,
      "Ġmanufact": 4432,
      "Ġadvanced": 4433,
      "Ġmembership": 4434,
      "paign": 4435,
      "Ġengineering": 4436,
      "Ġstanford": 4437,
      "istics": 4438,
      "ĠSu": 4439,
      "ĠWorld": 4440,
      "ĠOne": 4441,
      "Ġinvestig": 4442,
      "Ġspeaker": 4443,
      ".>": 4444,
      "Ġwhite": 4445,
      "Ġpretty": 4446,
      "van": 4447,
      "inter": 4448,
      "geek": 4449,
      "Ġ42": 4450,
      "Ġtech": 4451,
      "Ġphen": 4452,
      "Ġreaders": 4453,
      "Ġbrows": 4454,
      "Ġgeorg": 4455,
      "âĤ¬ÂĿ": 4456,
      "pg": 4457,
      "ser": 4458,
      "Ġthreat": 4459,
      "Ġwalk": 4460,
      "Ġmood": 4461,
      "Ġdoc": 4462,
      "Ġedition": 4463,
      "Ġreceipt": 4464,
      "Ġlevels": 4465,
      "uable": 4466,
      "eld": 4467,
      "ulations": 4468,
      "ĠWith": 4469,
      "Ġassume": 4470,
      "Ġordering": 4471,
      "Ġnature": 4472,
      "Ġspoken": 4473,
      "UT": 4474,
      "cG": 4475,
      "Ġinquir": 4476,
      "Ġsubstant": 4477,
      "Ġdiscussed": 4478,
      "Ġidentify": 4479,
      "43": 4480,
      "iles": 4481,
      "razor": 4482,
      "Ġfrank": 4483,
      "Ġxls": 4484,
      "noon": 4485,
      "SA": 4486,
      "inst": 4487,
      "Ġball": 4488,
      "dec": 4489,
      "ĠRed": 4490,
      "Ġmanual": 4491,
      "Ġconfig": 4492,
      "Ġaccounts": 4493,
      "Ġplanning": 4494,
      "Ġcial": 4495,
      "Ġandrew": 4496,
      "Ġgeek": 4497,
      "Ġvac": 4498,
      "ĠMessage": 4499,
      "Ġheaven": 4500,
      "ĠOur": 4501,
      "Ġpositive": 4502,
      "Ġindustrial": 4503,
      "Ġurl": 4504,
      "Ġinterests": 4505,
      "Ġthinking": 4506,
      "Ġsolic": 4507,
      "!!!": 4508,
      "Kio": 4509,
      "ses": 4510,
      "lements": 4511,
      "Ġroll": 4512,
      "âĢĻ": 4513,
      "Ġattach": 4514,
      "Ġdavis": 4515,
      "Ġspokes": 4516,
      "CC": 4517,
      "gment": 4518,
      "ping": 4519,
      "Ġlee": 4520,
      "Ġmont": 4521,
      "Ġservers": 4522,
      "Ġemb": 4523,
      "Ġterror": 4524,
      "Ġsigned": 4525,
      "Ġcategory": 4526,
      "Ġbloomberg": 4527,
      "No": 4528,
      "VER": 4529,
      "Ġrout": 4530,
      "Ġexposure": 4531,
      "Ġfunction": 4532,
      "Ġmorphology": 4533,
      "Ġship": 4534,
      "Ġanywhere": 4535,
      "Ġrevised": 4536,
      "Ġpresented": 4537,
      "Ġparticipation": 4538,
      "Ġconflict": 4539,
      "Ġtam": 4540,
      "abilities": 4541,
      "Ġproviding": 4542,
      "Ġactivities": 4543,
      "PT": 4544,
      "ffer": 4545,
      "kt": 4546,
      "oring": 4547,
      "Ġdar": 4548,
      "ament": 4549,
      "Ġkn": 4550,
      "Ġkin": 4551,
      "Ġbrit": 4552,
      "Ġadvance": 4553,
      "Ġcentre": 4554,
      "ONT": 4555,
      "Ġdistin": 4556,
      "Ġsteph": 4557,
      "06": 4558,
      "cr": 4559,
      "Ġson": 4560,
      "anch": 4561,
      "Ġdam": 4562,
      "opt": 4563,
      "ĠAL": 4564,
      "ĠMA": 4565,
      "Ġpharm": 4566,
      "Ġinternal": 4567,
      "Ġrelationship": 4568,
      "Ġevaluation": 4569,
      "Ġcoffee": 4570,
      "Ġwys": 4571,
      "isation": 4572,
      "alle": 4573,
      "Ġcompli": 4574,
      "Ġallows": 4575,
      "ĠOR": 4576,
      "Ġprescription": 4577,
      "ĉĉĉ": 4578,
      "Ġpeter": 4579,
      "Ġfailed": 4580,
      "Ġwholesale": 4581,
      "fm": 4582,
      "Â´": 4583,
      "Ġtou": 4584,
      "Ġcas": 4585,
      "Ġmath": 4586,
      "eless": 4587,
      "cipl": 4588,
      "ĠMr": 4589,
      "ĠFr": 4590,
      "Ġcoordin": 4591,
      "Ġattract": 4592,
      "Ġlinguists": 4593,
      "Ġlaunch": 4594,
      "Ġlogic": 4595,
      "Ġgiving": 4596,
      "Ġwaiting": 4597,
      "newsisf": 4598,
      "Ġsymbol": 4599,
      "newsisfree": 4600,
      "Ġram": 4601,
      "isions": 4602,
      "unt": 4603,
      "Ġexcept": 4604,
      "ends": 4605,
      "Ġafternoon": 4606,
      "athTo": 4607,
      "Ġapproaches": 4608,
      "DeathTo": 4609,
      "Ġphenomen": 4610,
      "DeathToSpam": 4611,
      "aci": 4612,
      "bi": 4613,
      "Ġstra": 4614,
      "ategy": 4615,
      "ĠYahoo": 4616,
      "Ġstrategy": 4617,
      "Ġproperty": 4618,
      "82": 4619,
      "Ġthems": 4620,
      "Ġanth": 4621,
      "there": 4622,
      "Ġyours": 4623,
      "aving": 4624,
      "Ġeditor": 4625,
      "ĠJust": 4626,
      "Ġdifference": 4627,
      "ĠKing": 4628,
      "Ġproposals": 4629,
      "ĠWhen": 4630,
      "Ġexcell": 4631,
      "Ġappears": 4632,
      "Ġwilliams": 4633,
      "Ġthemselves": 4634,
      "VD": 4635,
      "ira": 4636,
      "ko": 4637,
      "Ġpull": 4638,
      "Ġfine": 4639,
      "ĠNOW": 4640,
      "Ġpowerful": 4641,
      "Ġresearchers": 4642,
      "ĠĊĠĠĠĠĠĠĠĠĠĠĠ": 4643,
      "Ġsaturday": 4644,
      "Ġconditions": 4645,
      "Ġgraphics": 4646,
      "outh": 4647,
      "ancy": 4648,
      "Ġnether": 4649,
      "Ġbackground": 4650,
      "Ġdeveloping": 4651,
      "gnome": 4652,
      "51": 4653,
      "83": 4654,
      "sm": 4655,
      "elines": 4656,
      "cht": 4657,
      "Ġproced": 4658,
      "Ġcompens": 4659,
      "Ġresource": 4660,
      "ished": 4661,
      "Ġutilities": 4662,
      "Ġupdated": 4663,
      "Ġframe": 4664,
      "Ġtutorial": 4665,
      "Ġrom": 4666,
      "Ġcooper": 4667,
      "Ġgreen": 4668,
      "Ġpark": 4669,
      "Ġsheet": 4670,
      "Ġeffects": 4671,
      "73": 4672,
      "ike": 4673,
      "ĠÃ¬": 4674,
      "Ġfoot": 4675,
      "Ġshows": 4676,
      "Ġvariety": 4677,
      "Ġrequests": 4678,
      "Ġsemin": 4679,
      "Ġdetermin": 4680,
      ".--": 4681,
      "Ġcod": 4682,
      "itary": 4683,
      "Ġdates": 4684,
      "Ġlas": 4685,
      "Ġstorage": 4686,
      "ĠAugust": 4687,
      "Ġ69": 4688,
      "Ġspecif": 4689,
      "ermine": 4690,
      "ĠAmerica": 4691,
      "ĠPerl": 4692,
      "xgate": 4693,
      "erous": 4694,
      "icle": 4695,
      "standing": 4696,
      "aylor": 4697,
      "Ġenronxgate": 4698,
      "Ġsurvey": 4699,
      "Ġimmediate": 4700,
      "Ġachieve": 4701,
      "ZW": 4702,
      "Ġol": 4703,
      "Ġindia": 4704,
      "Ġprofile": 4705,
      "Ġfinancing": 4706,
      "Ġutility": 4707,
      "Ġguaranteed": 4708,
      "ev": 4709,
      "ja": 4710,
      "Ġsens": 4711,
      "Ġeth": 4712,
      "Ġvs": 4713,
      "Ġregion": 4714,
      "spam": 4715,
      "Ġcirc": 4716,
      "Ġbottom": 4717,
      "56": 4718,
      "bel": 4719,
      "dress": 4720,
      "Ġsorry": 4721,
      "Ġdivers": 4722,
      "Ġliving": 4723,
      "thias": 4724,
      "Ġsequ": 4725,
      "Ġsher": 4726,
      "Ġbiggest": 4727,
      "Ġdoubt": 4728,
      "Ġreasons": 4729,
      "family": 4730,
      "lo": 4731,
      "Ġaol": 4732,
      "Ġcart": 4733,
      "Ġexclus": 4734,
      "Ġ41": 4735,
      "Ġamaz": 4736,
      "Ġinvestigation": 4737,
      "Ġmedical": 4738,
      "Ġprompt": 4739,
      "Ġsubscribers": 4740,
      "Ġscheduled": 4741,
      "Ġintelligence": 4742,
      "Ġpg": 4743,
      "enty": 4744,
      "usion": 4745,
      "Ġprosp": 4746,
      "Ġrule": 4747,
      "Ġexerc": 4748,
      "ĠJuly": 4749,
      "ĠĠĠĠĠĠĠĠĠĠĠĠĠĠĠĠĠĠĠĠĠĠĠĠĠĠĠĠĠĠĠĠ": 4750,
      "Think": 4751,
      "Ġprocesses": 4752,
      "Ġmanaging": 4753,
      "Ġtreat": 4754,
      "uit": 4755,
      "will": 4756,
      "Ãª": 4757,
      "Ġalex": 4758,
      "ida": 4759,
      "Ġcongr": 4760,
      "ado": 4761,
      "cks": 4762,
      "compl": 4763,
      "Ġbrown": 4764,
      "which": 4765,
      "Ġfreedom": 4766,
      "Ġticket": 4767,
      "Ġadministration": 4768,
      "Ġcounterpart": 4769,
      "Ġmg": 4770,
      "Ġvict": 4771,
      "Ġkore": 4772,
      "Ġactive": 4773,
      "Ġincreasing": 4774,
      "Ġeconomy": 4775,
      "Ġinnov": 4776,
      "Ġseparate": 4777,
      "ohn": 4778,
      "sb": 4779,
      "Ġweather": 4780,
      "Ġweekly": 4781,
      "Ġbroker": 4782,
      "Ġpurpose": 4783,
      "shaw": 4784,
      "onym": 4785,
      "Ġscheduling": 4786,
      "Ġphysical": 4787,
      "Ġwireless": 4788,
      "Ġinterpretation": 4789,
      "Ġnetherlands": 4790,
      "gram": 4791,
      "atthias": 4792,
      "Ġfresh": 4793,
      "ĠSep": 4794,
      "Ġdoor": 4795,
      "Ġdiss": 4796,
      "Ġrecords": 4797,
      "Ġ150": 4798,
      "Ġmonthly": 4799,
      "Ġwrites": 4800,
      "Ġpackages": 4801,
      "ANT": 4802,
      "Ġassociate": 4803,
      "poses": 4804,
      "Ġcarol": 4805,
      "Ġoffered": 4806,
      "Ġexpert": 4807,
      "Ġbelieves": 4808,
      "bar": 4809,
      "pd": 4810,
      "Ġlinux": 4811,
      "Ġec": 4812,
      "Ġgather": 4813,
      "this": 4814,
      "Ġko": 4815,
      "ager": 4816,
      "reng": 4817,
      "Ġdollar": 4818,
      "Ġmoving": 4819,
      "Ġpanel": 4820,
      "Ġuncertainties": 4821,
      "EW": 4822,
      "Â»": 4823,
      "Ġcards": 4824,
      "Ġpt": 4825,
      "Ġmur": 4826,
      "Ġdrop": 4827,
      "Ġell": 4828,
      "Ġadult": 4829,
      "enders": 4830,
      "Ġcalcul": 4831,
      "iliar": 4832,
      "Ġreleased": 4833,
      "Ġphotos": 4834,
      "Ġbudget": 4835,
      "Ġacademic": 4836,
      "Ġcharges": 4837,
      "Ġwestern": 4838,
      "Ġinher": 4839,
      "Ġwhatever": 4840,
      "ĠIT": 4841,
      "ection": 4842,
      "Ġsaw": 4843,
      "ously": 4844,
      "????": 4845,
      "Ġerr": 4846,
      "Ġsympos": 4847,
      "ĠAmerican": 4848,
      "Ġtor": 4849,
      "Ġoh": 4850,
      "Ġemployee": 4851,
      "Ġviol": 4852,
      "ĠXML": 4853,
      "Ġintroduction": 4854,
      "rength": 4855,
      "Geek": 4856,
      "vision": 4857,
      "Ġdil": 4858,
      "Ġ>>": 4859,
      "Ġcloth": 4860,
      "Ġactions": 4861,
      "Ġpresentations": 4862,
      "42": 4863,
      "81": 4864,
      "aj": 4865,
      "Ġcru": 4866,
      "ening": 4867,
      "Ġdave": 4868,
      "Ġhor": 4869,
      "asy": 4870,
      "Ġcho": 4871,
      "agraph": 4872,
      "ĠClick": 4873,
      "ĠBORDER": 4874,
      "Ġargument": 4875,
      "Ġapproximately": 4876,
      "RI": 4877,
      "code": 4878,
      "eff": 4879,
      "Ġfem": 4880,
      "Ġling": 4881,
      "ctions": 4882,
      "Ġiii": 4883,
      "Ġproven": 4884,
      "Ġkill": 4885,
      "Ġunless": 4886,
      "ĠAny": 4887,
      "mails": 4888,
      "Ġinstalled": 4889,
      "Ġaffiliation": 4890,
      "ĠQu": 4891,
      "Exmh": 4892,
      "Ġtalks": 4893,
      "Â¡": 4894,
      "Ġing": 4895,
      "Ġmx": 4896,
      "Ġtowards": 4897,
      "icks": 4898,
      "Ġstation": 4899,
      "see": 4900,
      "Ġhaven": 4901,
      "anta": 4902,
      "ĠTra": 4903,
      "ĠAf": 4904,
      "Ġamb": 4905,
      "Ġguess": 4906,
      "Ġpurposes": 4907,
      "Ġbuying": 4908,
      "Ġlottery": 4909,
      "boing": 4910,
      "Ġmoody": 4911,
      "Ġcialis": 4912,
      "Ne": 4913,
      "Pro": 4914,
      "Â¨": 4915,
      "ÂĲ": 4916,
      "Ġsle": 4917,
      "Ġbanks": 4918,
      "ĠApp": 4919,
      "Ġgovern": 4920,
      "Ġletters": 4921,
      "meat": 4922,
      "lc": 4923,
      "Ġhur": 4924,
      "Ġextrem": 4925,
      "Ġgraduate": 4926,
      "board": 4927,
      "Ġcompetition": 4928,
      "Ġreplace": 4929,
      "Ġangel": 4930,
      "cell": 4931,
      "jm": 4932,
      "Ċĉĉĉĉ": 4933,
      "ano": 4934,
      "Ġbiz": 4935,
      "Ġinput": 4936,
      "Ġconduct": 4937,
      "Ġ43": 4938,
      "Ġbehav": 4939,
      "Ġcontained": 4940,
      "Ġcollection": 4941,
      "Ġthomas": 4942,
      "thinkgeek": 4943,
      "ThinkGeek": 4944,
      "OD": 4945,
      "group": 4946,
      "onic": 4947,
      "ĠWed": 4948,
      "Ġrazor": 4949,
      "ields": 4950,
      "Ġacquire": 4951,
      "Ġcampaign": 4952,
      "Ġpredict": 4953,
      "Ġcommodity": 4954,
      ");": 4955,
      "79": 4956,
      "sch": 4957,
      "illa": 4958,
      "Ġcompreh": 4959,
      "Ġasset": 4960,
      "Ġsender": 4961,
      "Ġscreen": 4962,
      "Ġdynam": 4963,
      "Ġincreased": 4964,
      "Ġlowest": 4965,
      "Ġphilos": 4966,
      "Ġappreciate": 4967,
      "Ġdinner": 4968,
      "Ġcongrat": 4969,
      "MT": 4970,
      "mon": 4971,
      "inc": 4972,
      "Ġ-----": 4973,
      "Ġstated": 4974,
      "Ġwinning": 4975,
      "Ġbehind": 4976,
      "Ġpreviously": 4977,
      "Ġofficials": 4978,
      "Ġcompliance": 4979,
      "sky": 4980,
      "place": 4981,
      "Ġtechniques": 4982,
      "Ġfiling": 4983,
      "Ġpublications": 4984,
      "Ġabsolutely": 4985,
      "Ġsqu": 4986,
      "Ġovers": 4987,
      "Ġltd": 4988,
      "Ġren": 4989,
      "urer": 4990,
      "orts": 4991,
      "Ġparties": 4992,
      "Ġfacts": 4993,
      "EST": 4994,
      "Ġcertainly": 4995,
      "Ġparticularly": 4996,
      "CQ": 4997,
      "Â³": 4998,
      "Ġforum": 4999,
      "Ġstinson": 5000,
      "Ġdeath": 5001,
      "iring": 5002,
      "ĠMicrosoft": 5003,
      "Ġquery": 5004,
      "Ġresponsible": 5005,
      "Ġbrowser": 5006,
      "UL": 5007,
      "bing": 5008,
      "tt": 5009,
      "yl": 5010,
      "isl": 5011,
      "using": 5012,
      "Ġgeneric": 5013,
      "Ġequip": 5014,
      "overy": 5015,
      "pson": 5016,
      "rid": 5017,
      "rant": 5018,
      "Â±": 5019,
      "Ġwife": 5020,
      "Ġded": 5021,
      "icago": 5022,
      "Ġbeck": 5023,
      "Ġspring": 5024,
      "Ġgoal": 5025,
      "Ġcommit": 5026,
      "Ġafford": 5027,
      "Ġrecru": 5028,
      "Ġguys": 5029,
      "Ġentertain": 5030,
      "Ġprojections": 5031,
      "airs": 5032,
      "Ġdetailed": 5033,
      "Ġcambridge": 5034,
      "burgh": 5035,
      "Ġresponses": 5036,
      "Ġfeatured": 5037,
      "Ġpiece": 5038,
      "/-": 5039,
      "OS": 5040,
      "Ġbug": 5041,
      "Ġgro": 5042,
      "ĠSun": 5043,
      "Ġplain": 5044,
      "Ġ77": 5045,
      "Ġhandle": 5046,
      "Ġmemory": 5047,
      "Ġlots": 5048,
      "Ġidentified": 5049,
      "Ġsubscription": 5050,
      "++++++++++++++++": 5051,
      "iary": 5052,
      "Ġahead": 5053,
      "urch": 5054,
      "Ġrs": 5055,
      "Ġunits": 5056,
      "Ġ120": 5057,
      "otten": 5058,
      "Ġplaced": 5059,
      "Ġpronoun": 5060,
      "EXT": 5061,
      "Ġphilosoph": 5062,
      "52": 5063,
      "uce": 5064,
      "uits": 5065,
      "Ġboy": 5066,
      "âĢľ": 5067,
      "Ġfamiliar": 5068,
      "Ġpotent": 5069,
      "ILL": 5070,
      "Ġanswers": 5071,
      "-)": 5072,
      "hl": 5073,
      "jo": 5074,
      "jx": 5075,
      "Ġapt": 5076,
      "Ġcren": 5077,
      "Ġfat": 5078,
      "Ġalign": 5079,
      "pping": 5080,
      "Ġlaura": 5081,
      "Ġweekend": 5082,
      "Ġpaying": 5083,
      "Ġparis": 5084,
      "Ġselection": 5085,
      "Ġbrian": 5086,
      "Ġdegree": 5087,
      "Ġcrenshaw": 5088,
      "Â¬": 5089,
      "Ġta": 5090,
      "Ġcert": 5091,
      "ato": 5092,
      "Ġwel": 5093,
      "Ġbir": 5094,
      "Ġled": 5095,
      "Ġlack": 5096,
      "Ġju": 5097,
      "Ġcompl": 5098,
      "osp": 5099,
      "ĠCon": 5100,
      "ĠMS": 5101,
      "ache": 5102,
      "taint": 5103,
      "Ġgreater": 5104,
      "Ġeffic": 5105,
      "Ġextended": 5106,
      "Ġsitara": 5107,
      "Ġsouthern": 5108,
      "Ġcatal": 5109,
      "ĠSeptember": 5110,
      "Ġaustralia": 5111,
      "page": 5112,
      "Ġara": 5113,
      "ulner": 5114,
      "Ġround": 5115,
      "Ġclients": 5116,
      "Ġheart": 5117,
      "phy": 5118,
      "Ġemp": 5119,
      "Ġthroughout": 5120,
      "Ġvaluable": 5121,
      "Ġcritical": 5122,
      "Ġfuel": 5123,
      "Ġevalu": 5124,
      "AY": 5125,
      "CT": 5126,
      "Ġenrononline": 5127,
      "aged": 5128,
      "ĠCNET": 5129,
      "Ġdisk": 5130,
      "âĢ¦": 5131,
      "Ġfilter": 5132,
      "Ġeasier": 5133,
      "ONE": 5134,
      "Ġasking": 5135,
      "Ġmaterials": 5136,
      "mers": 5137,
      "Ġult": 5138,
      "Ġscript": 5139,
      "esis": 5140,
      "Ġban": 5141,
      "Ġgives": 5142,
      "Ġdelete": 5143,
      "âĤ¬âĦ¢": 5144,
      "Welcome": 5145,
      "bon": 5146,
      "Ġbern": 5147,
      "Ġdiction": 5148,
      "Ġnoun": 5149,
      "Ġeg": 5150,
      "Ġreve": 5151,
      "Ġgod": 5152,
      "Ġcongress": 5153,
      "Ġrd": 5154,
      "ĠSystem": 5155,
      "Ġ58": 5156,
      "ĠMail": 5157,
      "âĢĵ": 5158,
      "Ġrequires": 5159,
      "Ġdecide": 5160,
      "Ġculture": 5161,
      "Ġfyi": 5162,
      "Ġmortgage": 5163,
      "itable": 5164,
      "Ġband": 5165,
      "eted": 5166,
      "Ġgave": 5167,
      "Ġrh": 5168,
      "Ġrick": 5169,
      "ĠMac": 5170,
      "Ġposting": 5171,
      "Ġskills": 5172,
      "desk": 5173,
      "Ġpleased": 5174,
      "Ġratings": 5175,
      "Ġpaso": 5176,
      "Ag": 5177,
      "tm": 5178,
      "Ġfra": 5179,
      "Ġforce": 5180,
      "Ġrpm": 5181,
      "mailto": 5182,
      "ĠPlease": 5183,
      "Ġgoals": 5184,
      "dev": 5185,
      "Ġraise": 5186,
      "Ġportfol": 5187,
      "Ġinflu": 5188,
      "Ġchapter": 5189,
      "And": 5190,
      "bal": 5191,
      "ales": 5192,
      "Ġnd": 5193,
      "ula": 5194,
      "Ġrand": 5195,
      "Ġusually": 5196,
      "Ġads": 5197,
      "Ġhtm": 5198,
      "Ġ64": 5199,
      "rence": 5200,
      "âĢ°": 5201,
      "Ġpayments": 5202,
      "Ġissued": 5203,
      "Ġpartnership": 5204,
      "check": 5205,
      "Ġcomparative": 5206,
      "BS": 5207,
      "PG": 5208,
      "fr": 5209,
      "po": 5210,
      "Ġmix": 5211,
      "Ġly": 5212,
      "Ġ1000": 5213,
      "email": 5214,
      "Ġkar": 5215,
      "Ġuni": 5216,
      "Ġarm": 5217,
      "ĠEng": 5218,
      "ova": 5219,
      "Ġslow": 5220,
      "Ġsupplied": 5221,
      "Ġlosses": 5222,
      "\\/\\/\\/\\/": 5223,
      "Ġmad": 5224,
      "Ġalg": 5225,
      "Ġmarg": 5226,
      "print": 5227,
      "Ġsteven": 5228,
      "Ġjean": 5229,
      "Ġhearing": 5230,
      "Ġstrategies": 5231,
      "Ġsymposium": 5232,
      "As": 5233,
      "NU": 5234,
      "Sh": 5235,
      "doc": 5236,
      "wood": 5237,
      "zen": 5238,
      "Âı": 5239,
      "Ġmicro": 5240,
      "Ġdiet": 5241,
      "arks": 5242,
      "icate": 5243,
      "Ġpros": 5244,
      "Ġking": 5245,
      "Ġinteraction": 5246,
      "Ġcentury": 5247,
      "Ġcompletely": 5248,
      "92": 5249,
      "Å¡": 5250,
      "Ġftp": 5251,
      "iced": 5252,
      "Ġoutstanding": 5253,
      "Ġprofits": 5254,
      "Ġgenerate": 5255,
      "Ġpassed": 5256,
      "Ġindicate": 5257,
      "Ġnearly": 5258,
      "opyright": 5259,
      "bor": 5260,
      "kJ": 5261,
      "Â§": 5262,
      "Ġton": 5263,
      "Ġmist": 5264,
      "itect": 5265,
      "ĠAM": 5266,
      "Ġdisplay": 5267,
      "âĢł": 5268,
      "fortun": 5269,
      "Ġwidth": 5270,
      "Al": 5271,
      "II": 5272,
      "dro": 5273,
      "ih": 5274,
      "oqu": 5275,
      "tel": 5276,
      "ĠRazor": 5277,
      "ught": 5278,
      "Ġexpenses": 5279,
      "Ġfacult": 5280,
      "Ġclearly": 5281,
      "Ġbroadband": 5282,
      "MAIL": 5283,
      "Ġfloor": 5284,
      "62": 5285,
      "Ġpounds": 5286,
      "Ġstri": 5287,
      "ulate": 5288,
      "Ġrank": 5289,
      "Ġ63": 5290,
      "ĠOf": 5291,
      "Ġcommand": 5292,
      "Ġengines": 5293,
      "ĠJava": 5294,
      "Ġmorgan": 5295,
      "Ġrepresentative": 5296,
      "Ġprize": 5297,
      "Ġconcerned": 5298,
      "Ġcontributions": 5299,
      "lt": 5300,
      "Ġaep": 5301,
      "isch": 5302,
      "Ġfather": 5303,
      "Ġnic": 5304,
      "cia": 5305,
      "ĠCol": 5306,
      "ĠRem": 5307,
      "ocr": 5308,
      "ĠEuro": 5309,
      "Ġidentity": 5310,
      "Ġbuilt": 5311,
      "Ġdelivered": 5312,
      "Ġassumptions": 5313,
      "marg": 5314,
      "Â·": 5315,
      "icense": 5316,
      "Ġeol": 5317,
      "road": 5318,
      "eland": 5319,
      "sterdam": 5320,
      "93": 5321,
      "limin": 5322,
      "Ġmoved": 5323,
      "Ġstream": 5324,
      "Ġhardware": 5325,
      "Ġarticles": 5326,
      "Ġiniti": 5327,
      "Ġeye": 5328,
      "/~": 5329,
      "57": 5330,
      "hr": 5331,
      "Ġeric": 5332,
      "Ġhed": 5333,
      "Ġspot": 5334,
      "Ġappoint": 5335,
      "aced": 5336,
      "Ġmonitor": 5337,
      "Ġdelay": 5338,
      "Ġjobs": 5339,
      ".,": 5340,
      "fu": 5341,
      "gers": 5342,
      "Ġwood": 5343,
      "oud": 5344,
      "Ġdri": 5345,
      "ality": 5346,
      "Ġanc": 5347,
      "olly": 5348,
      "Ġstrict": 5349,
      "Ġstrength": 5350,
      "Ġdoctor": 5351,
      "ĠCont": 5352,
      "Ġperm": 5353,
      "Ġordered": 5354,
      "Ġentered": 5355,
      "what": 5356,
      "Ġadministr": 5357,
      "Ġequipment": 5358,
      "margin": 5359,
      "500": 5360,
      "COM": 5361,
      "EE": 5362,
      "have": 5363,
      "pon": 5364,
      "Ġtu": 5365,
      "enced": 5366,
      "Ġalle": 5367,
      "ĠDon": 5368,
      "There": 5369,
      "Ġserve": 5370,
      "Ġsexual": 5371,
      "Ġtickets": 5372,
      "Ġshareholder": 5373,
      "cgi": 5374,
      "iers": 5375,
      "rants": 5376,
      "Ġparent": 5377,
      "Ġparts": 5378,
      "Ġdesp": 5379,
      "Ġexpects": 5380,
      "Ġpublishing": 5381,
      "Ġrepresentation": 5382,
      "Ġtesting": 5383,
      "Ġwindow": 5384,
      ".-": 5385,
      "386": 5386,
      "Your": 5387,
      "bout": 5388,
      "nell": 5389,
      "Ġlisa": 5390,
      "Ġspl": 5391,
      "ĠPM": 5392,
      "Ġfeet": 5393,
      "Ġnetworks": 5394,
      "ĠĠĠĠĠĠĠĠĠĠĠĠĠĠĠĠĠ": 5395,
      "Ġdialect": 5396,
      "~~~~~~~~": 5397,
      "HP": 5398,
      "aq": 5399,
      "eal": 5400,
      "lines": 5401,
      "oon": 5402,
      "yer": 5403,
      "Ġfal": 5404,
      "Ġnu": 5405,
      "etics": 5406,
      "Ġshown": 5407,
      "Ġamsterdam": 5408,
      "Ġ87": 5409,
      "ĠBusiness": 5410,
      "Ġdrugs": 5411,
      "Ġfiled": 5412,
      "Ġlocated": 5413,
      "Ġsometimes": 5414,
      "Ġphonological": 5415,
      "Ġfrequ": 5416,
      "Ġextremely": 5417,
      "My": 5418,
      "fast": 5419,
      "fix": 5420,
      "field": 5421,
      "house": 5422,
      "Ġcn": 5423,
      "level": 5424,
      "uration": 5425,
      "ops": 5426,
      "ĠServ": 5427,
      "ĠMan": 5428,
      "ocker": 5429,
      "Ġassess": 5430,
      "tood": 5431,
      "Ġrap": 5432,
      "Ġparagraph": 5433,
      "Ġcreative": 5434,
      "Ġlegisl": 5435,
      "Ġexplan": 5436,
      "Ġworkshops": 5437,
      "Ġcamera": 5438,
      "Ġperspective": 5439,
      "admin": 5440,
      "Ġalone": 5441,
      "ĠFri": 5442,
      "ĠRes": 5443,
      "Ġimpress": 5444,
      "commun": 5445,
      "Ġpetro": 5446,
      "Ġrevenues": 5447,
      "Ġprimary": 5448,
      "Ġoblig": 5449,
      "Ġrecipient": 5450,
      "97": 5451,
      "IF": 5452,
      "IR": 5453,
      "came": 5454,
      "rets": 5455,
      "Ġpin": 5456,
      "Ġmw": 5457,
      "Ġanonym": 5458,
      "icated": 5459,
      "elly": 5460,
      "Ġcomfort": 5461,
      "aphor": 5462,
      "anges": 5463,
      "Ġresol": 5464,
      "Ġsubsid": 5465,
      "ĠBu": 5466,
      "Ġawarded": 5467,
      "bin": 5468,
      "rd": 5469,
      "Ġie": 5470,
      "Ġexceed": 5471,
      "htm": 5472,
      "ĠST": 5473,
      "ĠDVD": 5474,
      "augh": 5475,
      "ĠTHIS": 5476,
      "freshmeat": 5477,
      "Ġnamed": 5478,
      "AP": 5479,
      "Our": 5480,
      "ville": 5481,
      "Ġfit": 5482,
      "Ġmir": 5483,
      "Ġbeg": 5484,
      "Ġene": 5485,
      "uman": 5486,
      "ĠFONT": 5487,
      "Ġspecul": 5488,
      "Ġexpand": 5489,
      "iances": 5490,
      "Ġprovider": 5491,
      "Ġowner": 5492,
      "Ġswitch": 5493,
      "Ġassociates": 5494,
      "Ġcolleag": 5495,
      "Ġdesktop": 5496,
      "Ġliterature": 5497,
      "$$$$$$$$": 5498,
      "Do": 5499,
      "How": 5500,
      "card": 5501,
      "lies": 5502,
      "Ġaw": 5503,
      "Ġfif": 5504,
      "ivil": 5505,
      "Ġanyway": 5506,
      "Ġroot": 5507,
      "Ġjoint": 5508,
      "arshall": 5509,
      "ĠJul": 5510,
      "Ġmovement": 5511,
      "Ġdomin": 5512,
      "Ġsuggestions": 5513,
      "Ġexcellent": 5514,
      "enKio": 5515,
      "itude": 5516,
      "Ġotc": 5517,
      "Ġhen": 5518,
      "ste": 5519,
      "ĠTuesday": 5520,
      "ĠSP": 5521,
      "alls": 5522,
      "Ġmeant": 5523,
      "Ġagency": 5524,
      "Ġrose": 5525,
      "Ġprevent": 5526,
      "ternal": 5527,
      "Ġpreferences": 5528,
      "Ġpromotion": 5529,
      "Ġplaces": 5530,
      "Ġlicens": 5531,
      "GR": 5532,
      "sk": 5533,
      "vention": 5534,
      "Âº": 5535,
      "atest": 5536,
      "Ġburn": 5537,
      "Ġforth": 5538,
      "emb": 5539,
      "ights": 5540,
      "uction": 5541,
      "Ġarg": 5542,
      "ĠHT": 5543,
      "Ġchecks": 5544,
      "Ġground": 5545,
      "Ġlabor": 5546,
      "Ġimprovement": 5547,
      "olinguistics": 5548,
      "Ġtouch": 5549,
      "96": 5550,
      "pan": 5551,
      "ya": 5552,
      "Â¹": 5553,
      "Ġcm": 5554,
      "Ġhus": 5555,
      "Ġcompon": 5556,
      "Ġ53": 5557,
      "ogle": 5558,
      "Ġmex": 5559,
      "oston": 5560,
      "ĠMark": 5561,
      "Ġminor": 5562,
      "Ġlogo": 5563,
      "Ġtitles": 5564,
      "Ġdevice": 5565,
      "Ġpractice": 5566,
      "Ġjunk": 5567,
      "Ad": 5568,
      "Se": 5569,
      "oria": 5570,
      "Ġmut": 5571,
      "Ġmand": 5572,
      "Ġlenders": 5573,
      "Ġcontrast": 5574,
      "Ġapparent": 5575,
      "rought": 5576,
      "Ġfollowed": 5577,
      "ructure": 5578,
      "Ġtexts": 5579,
      "Ġmerch": 5580,
      "Ġharris": 5581,
      "Ġmilitary": 5582,
      "Ġseeking": 5583,
      "ho": 5584,
      "Ġbills": 5585,
      "chan": 5586,
      "Ġenable": 5587,
      "ogy": 5588,
      "Ġutil": 5589,
      "Ġrestrict": 5590,
      "puter": 5591,
      "IGN": 5592,
      "Ġvoip": 5593,
      "((": 5594,
      "lib": 5595,
      "Ġfaster": 5596,
      "ington": 5597,
      "Ġlit": 5598,
      "icit": 5599,
      "Ġ::": 5600,
      "ams": 5601,
      "Ġspend": 5602,
      "Ġabs": 5603,
      "ĠOpen": 5604,
      "Ġsentence": 5605,
      "Ġcomputron": 5606,
      "Ġtraditional": 5607,
      "going": 5608,
      "Ġbehalf": 5609,
      "Ġproduce": 5610,
      "ĠSoftware": 5611,
      "Ii": 5612,
      "Ġbought": 5613,
      "lyn": 5614,
      "Ġheav": 5615,
      "Ġquote": 5616,
      "Ġmeetings": 5617,
      "attle": 5618,
      "Ġrecognition": 5619,
      "Ġprepared": 5620,
      "Ġdeposit": 5621,
      "All": 5622,
      "CH": 5623,
      "GP": 5624,
      "TM": 5625,
      "ech": 5626,
      "je": 5627,
      "Ġere": 5628,
      "Ġwat": 5629,
      "itics": 5630,
      "Ġandre": 5631,
      "Ġsole": 5632,
      "ocol": 5633,
      "Ġspeaking": 5634,
      "Ġjoe": 5635,
      "Ġnorthern": 5636,
      "Ġmeds": 5637,
      "Ġtrades": 5638,
      "Ġcontinued": 5639,
      "Ġjulie": 5640,
      "Ġaccommodation": 5641,
      "Che": 5642,
      "IP": 5643,
      "inger": 5644,
      "etary": 5645,
      "olid": 5646,
      "abie": 5647,
      "Ġclar": 5648,
      "Ġremains": 5649,
      "Ġseminar": 5650,
      "58": 5651,
      "63": 5652,
      "Pg": 5653,
      "bG": 5654,
      "Ġiv": 5655,
      "ama": 5656,
      "emy": 5657,
      "Ġsept": 5658,
      "ĠNO": 5659,
      "Ġcapt": 5660,
      "Ġcreating": 5661,
      "Ġhands": 5662,
      "Ġoptim": 5663,
      "Ġprivacy": 5664,
      "IGHT": 5665,
      "Ġsteps": 5666,
      "Ġborder": 5667,
      "Ġanticipated": 5668,
      "Ġtransportation": 5669,
      "Ġentertainment": 5670,
      "MO": 5671,
      "mod": 5672,
      "Ġast": 5673,
      "Ġcable": 5674,
      "Ġoi": 5675,
      "izes": 5676,
      "Ġ600": 5677,
      "Ġaggress": 5678,
      "Ġpec": 5679,
      "pecial": 5680,
      "Ġminimal": 5681,
      "Ġparalle": 5682,
      "Ġgrade": 5683,
      "Ġstructures": 5684,
      "Ġautomatic": 5685,
      "Ġhydro": 5686,
      "Ġprotection": 5687,
      "Ġwysak": 5688,
      "Ġcongratulations": 5689,
      "Ġcomplain": 5690,
      "ban": 5691,
      "eas": 5692,
      "Ġmount": 5693,
      "Ġmcc": 5694,
      "Ġdia": 5695,
      "Ġbegan": 5696,
      "oday": 5697,
      "ogs": 5698,
      "ĠBush": 5699,
      "Ġrober": 5700,
      "Ġincred": 5701,
      "Ġconcer": 5702,
      "Ġsuggested": 5703,
      "Ġhyp": 5704,
      "ACK": 5705,
      "Ġpragmatics": 5706,
      "LO": 5707,
      "don": 5708,
      "hard": 5709,
      "mb": 5710,
      "yond": 5711,
      "Ġusage": 5712,
      "ĠCl": 5713,
      "Ġdetermine": 5714,
      "Ġbroadcast": 5715,
      "Ġvacation": 5716,
      "Mail": 5717,
      "Sightings": 5718,
      "URE": 5719,
      "dG": 5720,
      "she": 5721,
      "xy": 5722,
      "Â¶": 5723,
      "esa": 5724,
      "ione": 5725,
      "ented": 5726,
      "unction": 5727,
      "Ġseven": 5728,
      "Ġseeing": 5729,
      "Ġguy": 5730,
      "Ġgenerally": 5731,
      "Ġfinding": 5732,
      "Ġcarry": 5733,
      "Ġreviews": 5734,
      "Ġupdates": 5735,
      "Ġsciences": 5736,
      "Ġnomin": 5737,
      "Ġconfirmation": 5738,
      "Ġafrica": 5739,
      "Ġft": 5740,
      "Ġhr": 5741,
      "Ġbecame": 5742,
      "Ġjenn": 5743,
      "Ġron": 5744,
      "Ġadjust": 5745,
      "Ġ66": 5746,
      "Ġtheme": 5747,
      "Ġpostal": 5748,
      "Ġparam": 5749,
      "Ġpassword": 5750,
      "Ġspecifically": 5751,
      "ximian": 5752,
      "Ġventure": 5753,
      "78": 5754,
      "IH": 5755,
      "Subject": 5756,
      "aa": 5757,
      "bes": 5758,
      "ftp": 5759,
      "jw": 5760,
      "Âį": 5761,
      "Ġtue": 5762,
      "Ġai": 5763,
      "Ġ:)": 5764,
      "Ġconfer": 5765,
      "ady": 5766,
      "Ġdeep": 5767,
      "ĠCenter": 5768,
      "Ġavailability": 5769,
      "Ġcomputers": 5770,
      "That": 5771,
      "Ġhappened": 5772,
      "Ġbonus": 5773,
      "Ġerrors": 5774,
      "Ġportfolio": 5775,
      "fortunately": 5776,
      "Latest": 5777,
      "What": 5778,
      "cape": 5779,
      "sites": 5780,
      "Ġtren": 5781,
      "Ġfel": 5782,
      "Ġbab": 5783,
      "Ġlock": 5784,
      "Ġbeyond": 5785,
      "orton": 5786,
      "Ġspent": 5787,
      "Ġremote": 5788,
      "lets": 5789,
      "Ġunderstood": 5790,
      "ĠCommun": 5791,
      "Ġcolloqu": 5792,
      "Ġproperties": 5793,
      "Ġlarger": 5794,
      "::::": 5795,
      "Ġenhance": 5796,
      "Ġvowel": 5797,
      "54": 5798,
      "An": 5799,
      "ROM": 5800,
      "power": 5801,
      "Ċĉ": 5802,
      "ros": 5803,
      "igital": 5804,
      "Ġjac": 5805,
      "aces": 5806,
      "Ġimages": 5807,
      "Ġverify": 5808,
      "Ġstandards": 5809,
      "================================================================": 5810,
      "Ġmathem": 5811,
      "Ġkorean": 5812,
      "BB": 5813,
      "En": 5814,
      "ao": 5815,
      "ball": 5816,
      "Ġsounds": 5817,
      "Ġpd": 5818,
      "Ġfi": 5819,
      "Ġmas": 5820,
      "Ġgree": 5821,
      "***": 5822,
      "enda": 5823,
      "Ġ1993": 5824,
      "Ġfailure": 5825,
      "aska": 5826,
      "limited": 5827,
      "Ġprinciples": 5828,
      "EG": 5829,
      "MS": 5830,
      "point": 5831,
      "Ġtour": 5832,
      "rec": 5833,
      "Ġcatch": 5834,
      "ened": 5835,
      "Ġmother": 5836,
      "Ġbound": 5837,
      "roy": 5838,
      "Ġstar": 5839,
      "Ġsuc": 5840,
      "Ġfran": 5841,
      "force": 5842,
      "Ġ88": 5843,
      "Ġprepar": 5844,
      "Ġmetals": 5845,
      "Ġboost": 5846,
      "Ġbanking": 5847,
      "Ġopening": 5848,
      "Ġconversation": 5849,
      "Ġcandidates": 5850,
      "But": 5851,
      "FT": 5852,
      "Fn": 5853,
      "bW": 5854,
      "ln": 5855,
      "win": 5856,
      "Ġtxt": 5857,
      "Ġdip": 5858,
      "Ġhref": 5859,
      "Ġmeasure": 5860,
      "ĠList": 5861,
      "Ġprelimin": 5862,
      ">>>": 5863,
      "Ġpossibly": 5864,
      "Ġexperim": 5865,
      "Ġinside": 5866,
      "Ġcourses": 5867,
      "Ġreduce": 5868,
      "Ġintegration": 5869,
      "ĠEnenKio": 5870,
      "Ġsavings": 5871,
      "oz": 5872,
      "otic": 5873,
      "ifer": 5874,
      "astic": 5875,
      "Ġ0000": 5876,
      "Ġplants": 5877,
      "keley": 5878,
      "Ġwouldn": 5879,
      "mann": 5880,
      "Ġzero": 5881,
      "Ġbrad": 5882,
      "Ġduke": 5883,
      "Ġack": 5884,
      "Ġdied": 5885,
      "Ġgone": 5886,
      "Ġbeaut": 5887,
      "Ġconsequ": 5888,
      "Ġjump": 5889,
      "Ġrm": 5890,
      "Ġshut": 5891,
      "Ġkept": 5892,
      "Ġglad": 5893,
      "Ġresponsibility": 5894,
      "Ġaudio": 5895,
      "Ġarchitect": 5896,
      "Ġconsumer": 5897,
      "Ġpreliminary": 5898,
      "Cont": 5899,
      "han": 5900,
      "night": 5901,
      "ugh": 5902,
      "wid": 5903,
      "Ġcred": 5904,
      "ario": 5905,
      "Ġvend": 5906,
      "Ġconclus": 5907,
      "Ġriver": 5908,
      "Ġfranc": 5909,
      "Ġsyll": 5910,
      "Ġpreference": 5911,
      "web": 5912,
      "Ġevening": 5913,
      "Ġvisual": 5914,
      "Ġretrie": 5915,
      "iii": 5916,
      "Ġcharles": 5917,
      "ĠĊĠĠĠĠĠĠĠĠĠĠĠĠĠ": 5918,
      "Ġholding": 5919,
      "uracy": 5920,
      "Ġsunday": 5921,
      "content": 5922,
      "Ġfigure": 5923,
      "Just": 5924,
      "home": 5925,
      "iour": 5926,
      "Â¦": 5927,
      "Ġtar": 5928,
      "Ġlives": 5929,
      "Ġgib": 5930,
      "illary": 5931,
      "quest": 5932,
      "ĠAD": 5933,
      "Ġphase": 5934,
      "Ġcalling": 5935,
      "while": 5936,
      "Ġmajority": 5937,
      "Ġdescribed": 5938,
      "Ġassistant": 5939,
      "ĠTechn": 5940,
      "71": 5941,
      "mond": 5942,
      "Âª": 5943,
      "Ġwaste": 5944,
      "Ġreached": 5945,
      "Ġfork": 5946,
      "adian": 5947,
      "Ġbutton": 5948,
      "Ġagencies": 5949,
      "Thanks": 5950,
      "ESS": 5951,
      "Ġcontroll": 5952,
      "Ġlicense": 5953,
      "Ġclosing": 5954,
      "Ġencourage": 5955,
      "Ġconstraints": 5956,
      "Ġfaculty": 5957,
      "gments": 5958,
      "lan": 5959,
      "yers": 5960,
      "Ġtap": 5961,
      "Ġfood": 5962,
      "Ġffa": 5963,
      "Ġdram": 5964,
      "olf": 5965,
      "Ġvoc": 5966,
      "ĠSat": 5967,
      "Ġprc": 5968,
      "claim": 5969,
      "ĠHome": 5970,
      "Ġaccuracy": 5971,
      "Ġobligation": 5972,
      "Ġoxford": 5973,
      "Ġscientific": 5974,
      "Ġsubstantial": 5975,
      "DeathToSpamDeathToSpam": 5976,
      "ockergnome": 5977,
      "Ġparallel": 5978,
      "Ġconcerning": 5979,
      "cap": 5980,
      "ez": 5981,
      "link": 5982,
      "Ġcp": 5983,
      "ena": 5984,
      "iso": 5985,
      "Ġbell": 5986,
      "Ġom": 5987,
      "ola": 5988,
      "===": 5989,
      "Ġseason": 5990,
      "ĠAct": 5991,
      "ĠMarshall": 5992,
      "Ġ1933": 5993,
      "ĠHel": 5994,
      "Ġincorpor": 5995,
      "Ġschol": 5996,
      "Ġblood": 5997,
      "Ġscope": 5998,
      "Ġdetected": 5999,
      "Ġconfirmed": 6000,
      "Ġtargeted": 6001,
      "Ġcomparison": 6002,
      "Ġcandidate": 6003,
      "Å¸": 6004,
      "erd": 6005,
      "Ġcera": 6006,
      "Ġho": 6007,
      "Ġhun": 6008,
      "Ġwealth": 6009,
      "Ġlooked": 6010,
      "exmh": 6011,
      "ĠNetwork": 6012,
      "Ġpicture": 6013,
      "Ġexclusive": 6014,
      "Ġfalse": 6015,
      "IA": 6016,
      "file": 6017,
      "Ġtask": 6018,
      "aled": 6019,
      "ĠWill": 6020,
      "Ġinvite": 6021,
      "Ġknows": 6022,
      "Ġattor": 6023,
      "Ġboot": 6024,
      "ĠGroups": 6025,
      "Ġaffiliate": 6026,
      "Ġcitiz": 6027,
      "chester": 6028,
      "pat": 6029,
      "vet": 6030,
      "Â¾": 6031,
      "Ġbib": 6032,
      "Ġmaria": 6033,
      "ĠPe": 6034,
      "Ġmarked": 6035,
      "ugg": 6036,
      "Ġblue": 6037,
      "Ġgrants": 6038,
      "Ġcris": 6039,
      "Ġloans": 6040,
      "Ġdistributed": 6041,
      "Ġallowed": 6042,
      "Ġjudge": 6043,
      "Ġgirl": 6044,
      "Ġspokesman": 6045,
      "nie": 6046,
      "Ġci": 6047,
      "Ġvot": 6048,
      "Ġedison": 6049,
      "Ġaccur": 6050,
      "Ġfirms": 6051,
      "Ġminimum": 6052,
      "romedia": 6053,
      "Ġchanging": 6054,
      "Ġobjectives": 6055,
      "Ġestablished": 6056,
      "Ġfaith": 6057,
      "Power": 6058,
      "dp": 6059,
      "lm": 6060,
      "Ġcry": 6061,
      "Ġee": 6062,
      "rad": 6063,
      "ĠCons": 6064,
      "ĠLicense": 6065,
      "ocket": 6066,
      "clude": 6067,
      "Ġentre": 6068,
      "Ġsetting": 6069,
      "Ġsignature": 6070,
      "Ġimportance": 6071,
      "Ġremoval": 6072,
      "CLICK": 6073,
      "cil": 6074,
      "uel": 6075,
      "wo": 6076,
      "Ġice": 6077,
      "ini": 6078,
      "Ġfields": 6079,
      "Ġooking": 6080,
      "Ġstress": 6081,
      "Ġchicago": 6082,
      "Ġ96": 6083,
      "ĠPower": 6084,
      "Ġherein": 6085,
      "Ġengland": 6086,
      "Ġcomputing": 6087,
      "Ġposter": 6088,
      "Ġfilings": 6089,
      "Ġlatin": 6090,
      "Ġexecutives": 6091,
      "Ġreduced": 6092,
      "Ġmaximum": 6093,
      "CE": 6094,
      "nel": 6095,
      "rans": 6096,
      "Ġsnow": 6097,
      "Ġpow": 6098,
      "itely": 6099,
      "Ġbry": 6100,
      "etown": 6101,
      "Ġgames": 6102,
      "Ġitaly": 6103,
      "ĠIM": 6104,
      "ĠSub": 6105,
      "Ġ51": 6106,
      "ĠAN": 6107,
      "ĠHowever": 6108,
      "Ġdutch": 6109,
      "Ġcorrespondence": 6110,
      "Ġinherent": 6111,
      "''": 6112,
      "Get": 6113,
      "KE": 6114,
      "down": 6115,
      "ux": 6116,
      "wer": 6117,
      "rest": 6118,
      "Ġpi": 6119,
      "Ġfear": 6120,
      "itel": 6121,
      "Ġbes": 6122,
      "Ġtown": 6123,
      "Ġsector": 6124,
      "Ġ62": 6125,
      "world": 6126,
      "Ġcurve": 6127,
      "Ġcurren": 6128,
      "Ġadvised": 6129,
      "Ġcarl": 6130,
      "exas": 6131,
      "Ġgrand": 6132,
      "Ġplanned": 6133,
      "Ġsurpr": 6134,
      "Ġindeed": 6135,
      "Ġpressure": 6136,
      "Ġinstitut": 6137,
      "Ġdocumentation": 6138,
      "Ġlibrary": 6139,
      "Ġpatterns": 6140,
      "Ġframework": 6141,
      "TO": 6142,
      "yy": 6143,
      "Ġbind": 6144,
      "Ġnas": 6145,
      "Ġregional": 6146,
      "Ġvolat": 6147,
      "Ġshared": 6148,
      "remove": 6149,
      "Ġmotiv": 6150,
      "bic": 6151,
      "dn": 6152,
      "was": 6153,
      "Ġbrought": 6154,
      "Ġsty": 6155,
      "Ġstage": 6156,
      "opher": 6157,
      "Ġunw": 6158,
      "ĠSome": 6159,
      "Ġallen": 6160,
      "Ġmechan": 6161,
      "Ġ1992": 6162,
      "Ġowned": 6163,
      "Ġaffect": 6164,
      "Ġindicating": 6165,
      "Ġcareer": 6166,
      "Ġcollab": 6167,
      "Ġartific": 6168,
      "Ġtempor": 6169,
      "ĠSpam": 6170,
      "-=-=-=-=-=-=-=-=": 6171,
      "Ġwiil": 6172,
      "Ġdiscovered": 6173,
      "Ġmexico": 6174,
      "74": 6175,
      "iner": 6176,
      "Ġanne": 6177,
      "Ġgift": 6178,
      "ading": 6179,
      "ront": 6180,
      "Ġchann": 6181,
      "ppe": 6182,
      "ĠSte": 6183,
      "jects": 6184,
      "Ġdisp": 6185,
      "Ġoverall": 6186,
      "Ġvalues": 6187,
      "Ġreleases": 6188,
      "Ġreturned": 6189,
      "Ġcontinues": 6190,
      "Ġreliable": 6191,
      "Ġgeorgetown": 6192,
      "Ġhusband": 6193,
      "dH": 6194,
      "lvan": 6195,
      "Ġaz": 6196,
      "Ġthor": 6197,
      "Ġflex": 6198,
      "rian": 6199,
      "aper": 6200,
      "ĠHi": 6201,
      "Ġprogramming": 6202,
      "Ġsentences": 6203,
      "Ġpossibility": 6204,
      "Ġtrip": 6205,
      "Ġinquiry": 6206,
      "hZ": 6207,
      "inburgh": 6208,
      "Ġsong": 6209,
      "enge": 6210,
      "Ġoz": 6211,
      "Ġlin": 6212,
      "lying": 6213,
      "Ġvulner": 6214,
      "Ġspain": 6215,
      "ĠSearch": 6216,
      "ĠMur": 6217,
      "ibilities": 6218,
      "ĠBy": 6219,
      "ĠReg": 6220,
      "ĠLaw": 6221,
      "oyd": 6222,
      "azine": 6223,
      "Ġtraded": 6224,
      "xxxx": 6225,
      "Ġregulatory": 6226,
      "Ġguidelines": 6227,
      "Ġbritish": 6228,
      "Ġexercise": 6229,
      "Rem": 6230,
      "Ġmale": 6231,
      "ils": 6232,
      "eler": 6233,
      "Ġknew": 6234,
      "iven": 6235,
      "comes": 6236,
      "Ġobserv": 6237,
      "Ġreviewed": 6238,
      "Ġorganized": 6239,
      "Ġfacilities": 6240,
      "Ġskilling": 6241,
      "Ġconstructions": 6242,
      "Ġcondition": 6243,
      "IME": 6244,
      "Ġhonest": 6245,
      "Ġimagine": 6246,
      "Ġsucceed": 6247,
      "gar": 6248,
      "Âµ": 6249,
      "Ġave": 6250,
      "icas": 6251,
      "Ġwhom": 6252,
      "Ġ92": 6253,
      "Ġadding": 6254,
      "Ġexperien": 6255,
      "Ġhandling": 6256,
      "Ġinstitutions": 6257,
      "Ġnlp": 6258,
      "Ġfunctions": 6259,
      "Ġfolks": 6260,
      "ĠORDER": 6261,
      "ZS": 6262,
      "cd": 6263,
      "Ġmb": 6264,
      "Ġbat": 6265,
      "Ġhes": 6266,
      "Ġgal": 6267,
      "Ġru": 6268,
      "Ġkaren": 6269,
      "Ġuniv": 6270,
      "akers": 6271,
      "ĠMore": 6272,
      "Ġanybody": 6273,
      "Ġ61": 6274,
      "aco": 6275,
      "ĠOct": 6276,
      "ĠLe": 6277,
      "Ġnewsw": 6278,
      "Ġresulting": 6279,
      "workers": 6280,
      "Ġllc": 6281,
      "Ġorganizations": 6282,
      "rastructure": 6283,
      "Ġvirtual": 6284,
      "Ġcompensation": 6285,
      "Ġdictionary": 6286,
      "MC": 6287,
      "pack": 6288,
      "Ġcivil": 6289,
      "anne": 6290,
      "Ġhill": 6291,
      "ulated": 6292,
      "Ġ??": 6293,
      "Ġintel": 6294,
      "neg": 6295,
      "Ġros": 6296,
      "Ġcool": 6297,
      "Ġapolog": 6298,
      "Ġpractical": 6299,
      "Ġmissing": 6300,
      "Ġprofitable": 6301,
      "Ġmacromedia": 6302,
      "Ġcategories": 6303,
      "Ġcultural": 6304,
      "Ġfolder": 6305,
      "Ġrussian": 6306,
      "Ġstephen": 6307,
      "orp": 6308,
      "ades": 6309,
      "imb": 6310,
      "Ġunable": 6311,
      "Ġinvo": 6312,
      "Ġliber": 6313,
      "Ġexperts": 6314,
      "Ġportug": 6315,
      "Ġmultim": 6316,
      "Ġurgent": 6317,
      "Ġturned": 6318,
      "Ġchalleng": 6319,
      "Ġobviously": 6320,
      "Ġcircum": 6321,
      "Ġdespite": 6322,
      "Ġacknow": 6323,
      "ql": 6324,
      "enary": 6325,
      "Ġchom": 6326,
      "apore": 6327,
      "agga": 6328,
      "Ġoffices": 6329,
      "ĠEX": 6330,
      "Ġaddressed": 6331,
      "Ġindian": 6332,
      "Ġverbs": 6333,
      "RED": 6334,
      "Ġhelped": 6335,
      "they": 6336,
      "Ġextensive": 6337,
      "ifications": 6338,
      "Ġsets": 6339,
      "ERS": 6340,
      "Ġvariances": 6341,
      "Ġpaste": 6342,
      "Ġpurchased": 6343,
      "Ġexpressed": 6344,
      "Ġwestdesk": 6345,
      "Ġvariation": 6346,
      "Ġamazing": 6347,
      ";}": 6348,
      "NS": 6349,
      "fri": 6350,
      "year": 6351,
      "Ġcast": 6352,
      "Ġbol": 6353,
      "seen": 6354,
      "umber": 6355,
      "Ġleaving": 6356,
      "Ġresid": 6357,
      "Ġ1934": 6358,
      "Ġintr": 6359,
      "Ġtraffic": 6360,
      "ĠHat": 6361,
      "ĠGen": 6362,
      "ruction": 6363,
      "Ġreader": 6364,
      "Ġsmart": 6365,
      "________________________________________________": 6366,
      "Ġputting": 6367,
      "Ġdialects": 6368,
      "Ġanti": 6369,
      "Ġsample": 6370,
      "When": 6371,
      "Ġarrangements": 6372,
      "Ġsafety": 6373,
      "Ġderivatives": 6374,
      "ĠKingdom": 6375,
      "DE": 6376,
      "Free": 6377,
      "Ij": 6378,
      "kes": 6379,
      "ui": 6380,
      "Ġinci": 6381,
      "unsubscribe": 6382,
      "Ġvl": 6383,
      "Ġital": 6384,
      "abeth": 6385,
      "Ġdiscipl": 6386,
      "ĠDr": 6387,
      "Ġroy": 6388,
      "Ġuniversite": 6389,
      "php": 6390,
      "ĠJohn": 6391,
      "ĠĠĠĠĠĠĠĠĠĠĠĠĠĠĠĠĠĠĠĠĠĠĠ": 6392,
      "Ġdrug": 6393,
      "Ġbene": 6394,
      "awa": 6395,
      "ATE": 6396,
      "Ġshowing": 6397,
      "Ġphonetics": 6398,
      "Ġplayers": 6399,
      "Ġcompetitive": 6400,
      "Ġfortune": 6401,
      "CQkJ": 6402,
      "Ġancillary": 6403,
      "Ġrapid": 6404,
      "Ġanonymous": 6405,
      "800": 6406,
      "BC": 6407,
      "Go": 6408,
      "kins": 6409,
      "ns": 6410,
      "user": 6411,
      "Ġrub": 6412,
      "Ġaren": 6413,
      "Ġexcess": 6414,
      "ffice": 6415,
      "Ġ1990": 6416,
      "ĊĠĊĠ": 6417,
      "Ġdevelopments": 6418,
      "Ġfunding": 6419,
      "Ġestate": 6420,
      "Ġcele": 6421,
      "Ġproduced": 6422,
      "Ġshareholders": 6423,
      "Ġoppos": 6424,
      "Ġsolicitation": 6425,
      "68": 6426,
      "91": 6427,
      "By": 6428,
      "WE": 6429,
      "ped": 6430,
      "inance": 6431,
      "Ġcab": 6432,
      "Ġlif": 6433,
      "under": 6434,
      "Ġbei": 6435,
      "stream": 6436,
      "Ġvp": 6437,
      "Ġjer": 6438,
      "Ġspending": 6439,
      "Ġmeas": 6440,
      "Ġ94": 6441,
      "acc": 6442,
      "Ġsecrets": 6443,
      "Ġrac": 6444,
      "Ġmultil": 6445,
      "Ġinfrastructure": 6446,
      "Ġsubscribed": 6447,
      "Ġenterprise": 6448,
      "Ġjeffrey": 6449,
      "Ġcombined": 6450,
      "Ġconceptual": 6451,
      "Ġsharing": 6452,
      "250": 6453,
      "72": 6454,
      "ius": 6455,
      "mess": 6456,
      "si": 6457,
      "Ġow": 6458,
      "Ġdang": 6459,
      "rol": 6460,
      "erst": 6461,
      "Ġvin": 6462,
      "Ġencl": 6463,
      "Ġkids": 6464,
      "Ġsports": 6465,
      "berry": 6466,
      "angu": 6467,
      "Ġintend": 6468,
      "Ġedinburgh": 6469,
      "Ġpubi": 6470,
      "Ġraised": 6471,
      "script": 6472,
      "Ġkeeping": 6473,
      "Ġforecast": 6474,
      "END": 6475,
      "Ġmiles": 6476,
      "prietary": 6477,
      "iscuss": 6478,
      "Ġdisclosure": 6479,
      "Ġcampus": 6480,
      "Ġlucky": 6481,
      "Ġlexicon": 6482,
      "Ġcomprehensive": 6483,
      "Download": 6484,
      "Ġtips": 6485,
      "Ġgains": 6486,
      "start": 6487,
      "Ġkath": 6488,
      "osh": 6489,
      "Ġacl": 6490,
      "////": 6491,
      "Ġupgrade": 6492,
      "people": 6493,
      "ĠThese": 6494,
      "Ġauto": 6495,
      "Ġelimin": 6496,
      "Ġindicated": 6497,
      "Ġstrongly": 6498,
      "Ġberkeley": 6499,
      "decoration": 6500,
      "hm": 6501,
      "jb": 6502,
      "nbsp": 6503,
      "Ġrenew": 6504,
      "Ġproc": 6505,
      "Ġran": 6506,
      "ĠPGP": 6507,
      "Ġintent": 6508,
      "neth": 6509,
      "devel": 6510,
      "Ġhighlight": 6511,
      "Ġvisa": 6512,
      "Ġportion": 6513,
      "Ġapart": 6514,
      "Ġadvisor": 6515,
      "Ġcrisis": 6516,
      "Ġchomsky": 6517,
      "greg": 6518,
      "ji": 6519,
      "kl": 6520,
      "western": 6521,
      "only": 6522,
      "Ġbow": 6523,
      "Ġtoll": 6524,
      "Ġconcent": 6525,
      "urrent": 6526,
      "abber": 6527,
      "ĠĠĠĠĠĠĠĠĠ": 6528,
      "Ġwasn": 6529,
      "Ġimm": 6530,
      "ĠDes": 6531,
      "avid": 6532,
      "âĢº": 6533,
      "letters": 6534,
      "weight": 6535,
      "ateral": 6536,
      "Ġparad": 6537,
      "Ġsupposed": 6538,
      "AND": 6539,
      "Ġnomination": 6540,
      "Ġberlin": 6541,
      "Ġaustin": 6542,
      "Ġpremium": 6543,
      "Ġbilingual": 6544,
      "Ġtrouble": 6545,
      "Ġmerchant": 6546,
      "iere": 6547,
      "Ġsap": 6548,
      "Ġfav": 6549,
      "Ġbatch": 6550,
      "ilt": 6551,
      "unk": 6552,
      "Ġbeat": 6553,
      "Ġalert": 6554,
      "Ġexhib": 6555,
      "Ġchem": 6556,
      "ĠChe": 6557,
      "phas": 6558,
      "Ġexpans": 6559,
      "Ġdirectors": 6560,
      "Ġcolumn": 6561,
      "Ġoperate": 6562,
      "ternational": 6563,
      "shore": 6564,
      "Ġagreements": 6565,
      "Ġtreas": 6566,
      "Ġfourth": 6567,
      "Ġexciting": 6568,
      "Ġpolicies": 6569,
      "Ġimplementation": 6570,
      "Ġpictures": 6571,
      "Ġbehavior": 6572,
      "Ġphilosophy": 6573,
      "Ġrandom": 6574,
      "Ass": 6575,
      "EM": 6576,
      "SP": 6577,
      "loc": 6578,
      "Ġdab": 6579,
      "omb": 6580,
      "Ġeight": 6581,
      "Ġgem": 6582,
      "Ġstake": 6583,
      "estic": 6584,
      "Ġune": 6585,
      "Ġshell": 6586,
      "Ġucl": 6587,
      "Ġ700": 6588,
      "Ġtiming": 6589,
      "ĠData": 6590,
      "Ġacts": 6591,
      "Ġrevers": 6592,
      "Ġtechnoi": 6593,
      "Ġcrash": 6594,
      "Ġpromotions": 6595,
      "Ġpromotional": 6596,
      "Ġmorphological": 6597,
      "Ġspreadshe": 6598,
      "Ċĉĉĉĉĉĉĉ": 6599,
      "Ġstrictly": 6600,
      "Ġcolleagues": 6601,
      "Ġroberts": 6602,
      "lp": 6603,
      "Â¯": 6604,
      "Ġmine": 6605,
      "Ġweak": 6606,
      "ĠĠĠĠĠĠĠĠĠĠ": 6607,
      "iful": 6608,
      "Ġperman": 6609,
      "Ġuniversit": 6610,
      "Ġuniversal": 6611,
      "Ġwebsites": 6612,
      "Ġblank": 6613,
      "Ġhighest": 6614,
      "Ġpresently": 6615,
      "Ġruns": 6616,
      "Ġveh": 6617,
      "ALL": 6618,
      "Ġplayer": 6619,
      "Ġjoseph": 6620,
      "Ġcurrency": 6621,
      "Pl": 6622,
      "RU": 6623,
      "gister": 6624,
      "ĠÃ«": 6625,
      "Ġail": 6626,
      "Ġsans": 6627,
      "Ġcum": 6628,
      "Ġbren": 6629,
      "arge": 6630,
      "Ġreduction": 6631,
      "Ġgb": 6632,
      "Ġord": 6633,
      "Ġalb": 6634,
      "Ġexternal": 6635,
      "Ġspra": 6636,
      "anged": 6637,
      "ĠNor": 6638,
      "Ġdesire": 6639,
      "lett": 6640,
      "ĠInter": 6641,
      "rued": 6642,
      "Ġowners": 6643,
      "Ġprofession": 6644,
      "Ġnominal": 6645,
      "Ġdialogue": 6646,
      "Ġterminology": 6647,
      "fficient": 6648,
      "Ġphotoshop": 6649,
      "ĠHTML": 6650,
      "Ġartificial": 6651,
      "':": 6652,
      "mag": 6653,
      "Ġdor": 6654,
      "Ġhub": 6655,
      "Ġhosp": 6656,
      "Ġneither": 6657,
      "Ġnoted": 6658,
      "oding": 6659,
      "Ġagenda": 6660,
      "ruy": 6661,
      "Ġeastern": 6662,
      "Ġdifferences": 6663,
      "ĠStreet": 6664,
      "Ġfacil": 6665,
      "................": 6666,
      "Ġattacks": 6667,
      "Ġphrase": 6668,
      "width": 6669,
      "->": 6670,
      "About": 6671,
      "EED": 6672,
      "ORE": 6673,
      "lie": 6674,
      "name": 6675,
      "sel": 6676,
      "Ġswe": 6677,
      "recht": 6678,
      "Ġwoman": 6679,
      "aring": 6680,
      "root": 6681,
      "Ġshift": 6682,
      "Ġcompat": 6683,
      "cific": 6684,
      "article": 6685,
      "ĠSa": 6686,
      "Ġzone": 6687,
      "Ġstudio": 6688,
      "oked": 6689,
      "Ġearth": 6690,
      "Ġmedications": 6691,
      "ĠOnce": 6692,
      "Internet": 6693,
      "Ġmanaged": 6694,
      "Ġprivile": 6695,
      "system": 6696,
      "Ġmichelle": 6697,
      "Ġorganizing": 6698,
      "Ġcorel": 6699,
      "Ġpenis": 6700,
      "publish": 6701,
      "Ġcooperation": 6702,
      "ruyter": 6703,
      "215": 6704,
      "<<": 6705,
      "AF": 6706,
      "rich": 6707,
      "rating": 6708,
      "test": 6709,
      "Ġdere": 6710,
      "Ġsuffer": 6711,
      "Ġtruly": 6712,
      "index": 6713,
      "ultural": 6714,
      "bec": 6715,
      "Ġflood": 6716,
      "Ġchecking": 6717,
      "Ġleader": 6718,
      "Ġsingapore": 6719,
      "Ġestimate": 6720,
      "ĠEurope": 6721,
      "DN": 6722,
      "call": 6723,
      "Â¢": 6724,
      "organ": 6725,
      "Ġniger": 6726,
      "olic": 6727,
      "------": 6728,
      "Ġstories": 6729,
      "Ġproprietary": 6730,
      "resident": 6731,
      "ĠCOL": 6732,
      "Ġ67": 6733,
      "Ġoutput": 6734,
      "Ġexpense": 6735,
      "Ġ1996": 6736,
      "Ġindiana": 6737,
      "Ġmedic": 6738,
      "0100": 6739,
      "ĠWhy": 6740,
      "Ġdeliveries": 6741,
      "ĠREPORT": 6742,
      "ĠPhone": 6743,
      "Ġsleep": 6744,
      "Ġheavy": 6745,
      "()": 6746,
      "Gnome": 6747,
      "bro": 6748,
      "hy": 6749,
      "here": 6750,
      "oul": 6751,
      "Ġdpc": 6752,
      "Ġforces": 6753,
      "Ġip": 6754,
      "ido": 6755,
      "ima": 6756,
      "Ġunlimited": 6757,
      "Ġcompared": 6758,
      "ĠCap": 6759,
      "Ġmarc": 6760,
      "Ġrepe": 6761,
      "Ġrepublic": 6762,
      "Ġ72": 6763,
      "acle": 6764,
      "ĠBl": 6765,
      "cluding": 6766,
      "Ġrooms": 6767,
      "Original": 6768,
      "ĠReport": 6769,
      "Ġdiligence": 6770,
      "BY": 6771,
      "CD": 6772,
      "bet": 6773,
      "wan": 6774,
      "wares": 6775,
      "ype": 6776,
      "ĠÃĥ": 6777,
      "Ġtm": 6778,
      "inet": 6779,
      "Ġpour": 6780,
      "Ġld": 6781,
      "Ġlyn": 6782,
      "asant": 6783,
      "ctors": 6784,
      "etc": 6785,
      "istry": 6786,
      "tered": 6787,
      "Ġcomplic": 6788,
      "cient": 6789,
      "Ġcanadian": 6790,
      "ogi": 6791,
      "Ġ646": 6792,
      "Ġ89": 6793,
      "ĠLink": 6794,
      "Ġbruce": 6795,
      "Ġentry": 6796,
      "Ġsurv": 6797,
      "sylvan": 6798,
      "Ġfacility": 6799,
      "Ġprofessionals": 6800,
      "Ġteachers": 6801,
      "Ġillust": 6802,
      "theregister": 6803,
      "Ġhypoth": 6804,
      "IAL": 6805,
      "hel": 6806,
      "iro": 6807,
      "lap": 6808,
      "vb": 6809,
      "Ġsar": 6810,
      "Ġpatch": 6811,
      "isit": 6812,
      "embers": 6813,
      "Ġcompare": 6814,
      "anging": 6815,
      "Ġinteract": 6816,
      "ĠĠĠĊĠĠĠĠĠ": 6817,
      "Ġrolex": 6818,
      "Ġpeace": 6819,
      "Ġedge": 6820,
      "Ġadvise": 6821,
      "Ġowns": 6822,
      "Ġpromise": 6823,
      "Ġtrial": 6824,
      "Ġrecommended": 6825,
      "prene": 6826,
      "ĠĠĠĠĠĠĠĠĠĠĠĠĠĠĠĠĠĠĠĠĠĠĠĠĠĠĠĠĠĠĠ": 6827,
      "Ġradio": 6828,
      "Ġdropped": 6829,
      "Ġstraight": 6830,
      "Ġdynamic": 6831,
      "sylvania": 6832,
      "Ar": 6833,
      "Â¥": 6834,
      "Ġtheories": 6835,
      "Ġmah": 6836,
      "chron": 6837,
      "rael": 6838,
      "uts": 6839,
      "Ġspoke": 6840,
      "Ġ79": 6841,
      "Ġexpensive": 6842,
      "Ġassemb": 6843,
      "Ġtwenty": 6844,
      "Ġtabs": 6845,
      "Ġencouraged": 6846,
      "Ġrecommendation": 6847,
      "Ġefficient": 6848,
      "Ġattorney": 6849,
      "Bay": 6850,
      "OC": 6851,
      "OK": 6852,
      "var": 6853,
      "ye": 6854,
      "Ġsv": 6855,
      "Ġcel": 6856,
      "Ġtoward": 6857,
      "Ġlst": 6858,
      "Ġlam": 6859,
      "Ġretain": 6860,
      "Ġrid": 6861,
      "cii": 6862,
      "cious": 6863,
      "ĠMay": 6864,
      "Ġdisapp": 6865,
      "ĠFA": 6866,
      "Ġconson": 6867,
      "Ġcontacts": 6868,
      "Ġ215": 6869,
      "Ġlegit": 6870,
      "Ġsusp": 6871,
      "ĠUSA": 6872,
      "Ġsenate": 6873,
      "build": 6874,
      "Ġstrategic": 6875,
      "Ġkenneth": 6876,
      "ĠĊĠĠĠĠĠĠĠĠĠĠĠĠĠĠĠĠĠ": 6877,
      "Ġconvenience": 6878,
      "Ġaggressive": 6879,
      "dra": 6880,
      "oes": 6881,
      "orith": 6882,
      "Ġpig": 6883,
      "isb": 6884,
      "Ġbag": 6885,
      "arian": 6886,
      "iden": 6887,
      "ession": 6888,
      "Ġalt": 6889,
      "Ġjon": 6890,
      "Ġroman": 6891,
      "Ġchart": 6892,
      "eller": 6893,
      "Ġadds": 6894,
      "Ġperl": 6895,
      "ĠGU": 6896,
      "ounding": 6897,
      "Ġeds": 6898,
      "words": 6899,
      "Ġscr": 6900,
      "Ġdecisions": 6901,
      ">>>>": 6902,
      "Ġpacific": 6903,
      "Ġsurface": 6904,
      "Ġequival": 6905,
      "Ġqualify": 6906,
      "Ġbarb": 6907,
      "Ġamounts": 6908,
      "Ġdeclined": 6909,
      "Ġdefinitely": 6910,
      "Ġclosely": 6911,
      "Ġobtained": 6912,
      "Ġtroub": 6913,
      "Ġangeles": 6914,
      "Ġapparently": 6915,
      "Assassin": 6916,
      "MDA": 6917,
      "TP": 6918,
      "]:": 6919,
      "pot": 6920,
      "Ġtend": 6921,
      "inder": 6922,
      "Ġwarm": 6923,
      "Ġforget": 6924,
      "Ġire": 6925,
      "Ġasian": 6926,
      "ective": 6927,
      "Ġworry": 6928,
      "ĠAre": 6929,
      "Ġclub": 6930,
      "Ġ84": 6931,
      "Ġimper": 6932,
      "Ġinstance": 6933,
      "Ġbeth": 6934,
      "Ġdirection": 6935,
      "Ġcapabilities": 6936,
      "Ġlocate": 6937,
      "Ġhappens": 6938,
      "Ġmiller": 6939,
      "ĠTele": 6940,
      "Ġrelatively": 6941,
      "Ġchallenge": 6942,
      "itelist": 6943,
      "IZ": 6944,
      "One": 6945,
      "QU": 6946,
      "Ġ==": 6947,
      "ĠÃ£": 6948,
      "Ġtaylor": 6949,
      "iny": 6950,
      "icited": 6951,
      "ilo": 6952,
      "usr": 6953,
      "Ġvill": 6954,
      "igent": 6955,
      "Ġrival": 6956,
      "Ġchars": 6957,
      "ĠSm": 6958,
      "Ġmargin": 6959,
      "def": 6960,
      "ĠRead": 6961,
      "aves": 6962,
      "âĢ¡": 6963,
      "tech": 6964,
      "ĠĠĠĠĠĠĠĠĠĠĠĠĠĠĠĠĠĠĠ": 6965,
      "Ġcaused": 6966,
      "connect": 6967,
      "Ġindustries": 6968,
      "Ġmateria": 6969,
      "Ġcarefully": 6970,
      "Ġborrow": 6971,
      "Ġphenomena": 6972,
      "Ġgibner": 6973,
      "Reg": 6974,
      "equ": 6975,
      "pal": 6976,
      "tg": 6977,
      "zo": 6978,
      "eds": 6979,
      "aser": 6980,
      "ceived": 6981,
      "Ġbeach": 6982,
      "rap": 6983,
      "Ġjay": 6984,
      "Ġrise": 6985,
      "Ġexmh": 6986,
      "ĠTue": 6987,
      "ĠMake": 6988,
      "Ġ76": 6989,
      "âĢĺ": 6990,
      "Ġreconst": 6991,
      "Ġbright": 6992,
      "Ġhelps": 6993,
      "Ġlouis": 6994,
      "Ġprotocol": 6995,
      "FFFF": 6996,
      "solicited": 6997,
      "Ġremaining": 6998,
      "ĠMonday": 6999,
      "Ġliquidity": 7000,
      "Ġanthrop": 7001,
      "Ġretrieval": 7002,
      "RK": 7003,
      "ZT": 7004,
      "car": 7005,
      "gon": 7006,
      "har": 7007,
      "rl": 7008,
      "Ġtv": 7009,
      "reme": 7010,
      "Ġpor": 7011,
      "raq": 7012,
      "Ġprohib": 7013,
      "Ġconvert": 7014,
      "ails": 7015,
      "irty": 7016,
      "Ġunion": 7017,
      "Ġresolution": 7018,
      "Ġupgra": 7019,
      "Ġinvitation": 7020,
      "ĠRPM": 7021,
      "Ġnumerous": 7022,
      "ĠThu": 7023,
      "ĠThanks": 7024,
      "Ġevolution": 7025,
      "Ġflash": 7026,
      "Ġsetup": 7027,
      "Ġchecked": 7028,
      "Ġpatrick": 7029,
      "Ġmatters": 7030,
      "Ġclasses": 7031,
      "Ġcorpora": 7032,
      "Ġcontinuing": 7033,
      "clear": 7034,
      "ĠAlso": 7035,
      "Ġemerging": 7036,
      "Ġgiant": 7037,
      "config": 7038,
      "Ġromance": 7039,
      "Ġalgorith": 7040,
      "Ġexpansion": 7041,
      "He": 7042,
      "bie": 7043,
      "run": 7044,
      "rice": 7045,
      "Å¾": 7046,
      "Ġtai": 7047,
      "Ġtony": 7048,
      "Ġcook": 7049,
      "orre": 7050,
      "ancing": 7051,
      "Ġfight": 7052,
      "rob": 7053,
      "unci": 7054,
      "urt": 7055,
      "thy": 7056,
      "term": 7057,
      "Ġasp": 7058,
      "Ġcompos": 7059,
      "ĠĠĠĠĠĠĠĠĠĠĠĠĠ": 7060,
      "Ġadm": 7061,
      "ĠArial": 7062,
      "Ġreserve": 7063,
      "Ġpertain": 7064,
      "Ġdiscovery": 7065,
      "Ġcoal": 7066,
      "Ġbackup": 7067,
      "position": 7068,
      "Ġoperational": 7069,
      "Ġvision": 7070,
      "Ġsheets": 7071,
      "Ġviews": 7072,
      "Ġprincip": 7073,
      "Ġprimarily": 7074,
      "aul": 7075,
      "hb": 7076,
      "wall": 7077,
      "Â®": 7078,
      "Ġtun": 7079,
      "Ġcub": 7080,
      "order": 7081,
      "aris": 7082,
      "Ġea": 7083,
      "Ġreci": 7084,
      "Ġforg": 7085,
      "unct": 7086,
      "Ġconv": 7087,
      "Ġexception": 7088,
      "ichael": 7089,
      "Ġ74": 7090,
      "Ġtrain": 7091,
      "Ġagents": 7092,
      "Ġcoast": 7093,
      "Ġconsolid": 7094,
      "Ġextend": 7095,
      "ĠState": 7096,
      "Ġgrammars": 7097,
      "Ġdistribute": 7098,
      "Ġpopulation": 7099,
      "Ġcommerce": 7100,
      "Ġverbal": 7101,
      "Ġdiag": 7102,
      "Ġprepare": 7103,
      "Ġebay": 7104,
      "ĠSecurity": 7105,
      "ĠIndia": 7106,
      "Ġdabhol": 7107,
      "Mr": 7108,
      "gence": 7109,
      "linguist": 7110,
      "Ġther": 7111,
      "Ġsie": 7112,
      "Ġhence": 7113,
      "iling": 7114,
      "etting": 7115,
      "Ġgam": 7116,
      "Ġvote": 7117,
      "ĠTEXT": 7118,
      "ĠCorpor": 7119,
      "Ġplenary": 7120,
      "izabeth": 7121,
      "ĠWell": 7122,
      "Ġcouldn": 7123,
      "Ġcontacted": 7124,
      "Ġprocessed": 7125,
      "Ġfilm": 7126,
      "Ġamericas": 7127,
      "Ġorganis": 7128,
      "ennium": 7129,
      "Ġinvolving": 7130,
      "Ġtradem": 7131,
      "Ġchristian": 7132,
      "Ġpriority": 7133,
      "Ġ???????": 7134,
      "Ġhomes": 7135,
      "Ġsynth": 7136,
      "Ġpredictions": 7137,
      "Ġapologize": 7138,
      "):": 7139,
      "onial": 7140,
      "Ġdub": 7141,
      "Ġdale": 7142,
      "Ġonto": 7143,
      "ota": 7144,
      "Ġgov": 7145,
      "ĠYes": 7146,
      "Ġgenerated": 7147,
      "ossible": 7148,
      "Ġforever": 7149,
      "Ġauthority": 7150,
      "ĠAddress": 7151,
      "Ġthoughts": 7152,
      "Ġmcm": 7153,
      "Ġrelationships": 7154,
      "inois": 7155,
      "Ġnegotiations": 7156,
      "Ġprospects": 7157,
      "Ġdissert": 7158,
      "communications": 7159,
      "Ġbenefic": 7160,
      "Ġspreadsheet": 7161,
      "make": 7162,
      "ridge": 7163,
      "wart": 7164,
      "Ġcf": 7165,
      "Ġelements": 7166,
      "Ġnoticed": 7167,
      "about": 7168,
      "Ġusual": 7169,
      "Ġmeg": 7170,
      "Ġcontem": 7171,
      "Ġtruth": 7172,
      "izer": 7173,
      "acion": 7174,
      "ĠBar": 7175,
      "ĊĠĠĠĠĠĠĠĠĠĠĠĠĠĠĠ": 7176,
      "issa": 7177,
      "Ġsoftwares": 7178,
      "Ġvaluation": 7179,
      "Ġpayable": 7180,
      "Ġsky": 7181,
      "Ġdevices": 7182,
      "company": 7183,
      "Ġintegrated": 7184,
      "AAAAAAAAAAAAAAAAAAAAAAAAAAAAAAAA": 7185,
      "Ġdaniel": 7186,
      "vetica": 7187,
      "ĠCOLOR": 7188,
      "Am": 7189,
      "Be": 7190,
      "Read": 7191,
      "vance": 7192,
      "Ġaqu": 7193,
      "Ġpu": 7194,
      "anie": 7195,
      "Ġod": 7196,
      "aling": 7197,
      "Ġgender": 7198,
      "cha": 7199,
      "state": 7200,
      "Ġvon": 7201,
      "Ġenvelop": 7202,
      "Ġasia": 7203,
      "sey": 7204,
      "ander": 7205,
      "ĠSU": 7206,
      "Ġaccompl": 7207,
      "Ġplug": 7208,
      "Ġ105": 7209,
      "cluded": 7210,
      "ĠYork": 7211,
      "Ġentities": 7212,
      "projects": 7213,
      "Ġdivision": 7214,
      "Ġdetermined": 7215,
      "friend": 7216,
      "ASE": 7217,
      "Mv": 7218,
      "Vz": 7219,
      "king": 7220,
      "Ġion": 7221,
      "Ġtong": 7222,
      "eries": 7223,
      "Ġdvd": 7224,
      "Ġreform": 7225,
      "ela": 7226,
      "Ġubs": 7227,
      "ella": 7228,
      "Ġlev": 7229,
      "ĠGnome": 7230,
      "Ġassurance": 7231,
      "ĠInst": 7232,
      "ĊĠĊ": 7233,
      "Ġrevision": 7234,
      "Ġextent": 7235,
      "Ġslight": 7236,
      "ĠUnivers": 7237,
      "Ġreserves": 7238,
      "Ġpipe": 7239,
      "aneous": 7240,
      "Ġcircul": 7241,
      "Ġturb": 7242,
      "Ġconsumers": 7243,
      "Ġshopping": 7244,
      "Ġallocation": 7245,
      "Ġvolatility": 7246,
      ":*": 7247,
      "AE": 7248,
      "iation": 7249,
      "zil": 7250,
      "Ġaug": 7251,
      "Ġpending": 7252,
      "Ġpush": 7253,
      "Ġment": 7254,
      "Ġmap": 7255,
      "itative": 7256,
      "Ġdur": 7257,
      "alt": 7258,
      "002": 7259,
      "owell": 7260,
      "racy": 7261,
      "igan": 7262,
      "Ġprop": 7263,
      "Ġsuit": 7264,
      "ĠSubject": 7265,
      "ĠCal": 7266,
      "igned": 7267,
      "Ġrelig": 7268,
      "RESS": 7269,
      "Ġdowngrade": 7270,
      "Ġflag": 7271,
      "Ġzh": 7272,
      "Ġzip": 7273,
      "Ġownership": 7274,
      "Ġdistance": 7275,
      "Ġdemocr": 7276,
      "Ġheaders": 7277,
      "Ġfastest": 7278,
      "ĠComp": 7279,
      "Ġcoverage": 7280,
      "Ġestimated": 7281,
      "Ġtermination": 7282,
      "Ġintroduce": 7283,
      "Ġtutorials": 7284,
      "Ġjennifer": 7285,
      "Ġconferences": 7286,
      "Ġcharset": 7287,
      "61": 7288,
      "Matthias": 7289,
      "TT": 7290,
      "business": 7291,
      "wl": 7292,
      "xl": 7293,
      "Ġted": 7294,
      "Ġtied": 7295,
      "Ġari": 7296,
      "Ġarial": 7297,
      "Ġfo": 7298,
      "Ġdrew": 7299,
      "Ġinsp": 7300,
      "Ġanim": 7301,
      "Ġhong": 7302,
      "Ġvic": 7303,
      "Ġorient": 7304,
      "ained": 7305,
      "ĠSA": 7306,
      "Ġours": 7307,
      "ĠDigital": 7308,
      "Ġentity": 7309,
      "aha": 7310,
      "Ġhelping": 7311,
      "Ġpara": 7312,
      "Ġcompletion": 7313,
      "Ġconstrued": 7314,
      "Ġequal": 7315,
      "Ġunderstands": 7316,
      "Ġcommitted": 7317,
      "Ġoccas": 7318,
      "Ġentirely": 7319,
      "ĠGovernment": 7320,
      "server": 7321,
      "LS": 7322,
      "aur": 7323,
      "cre": 7324,
      "gg": 7325,
      "ras": 7326,
      "Å½": 7327,
      "Ġlavor": 7328,
      "Ġreb": 7329,
      "stone": 7330,
      "thon": 7331,
      "Ġdeve": 7332,
      "Ġsud": 7333,
      "umm": 7334,
      "udge": 7335,
      "ression": 7336,
      "ĠHar": 7337,
      "Ġbranch": 7338,
      "Ġelizabeth": 7339,
      "Ġorigination": 7340,
      "Ġretire": 7341,
      "Ġbigger": 7342,
      "Ġemployment": 7343,
      "Ġwinners": 7344,
      "Ġdomestic": 7345,
      "Ġsuspect": 7346,
      "Ġcorrectly": 7347,
      "ĠNetworks": 7348,
      "################################": 7349,
      "Ġarabic": 7350,
      "Ġbandwidth": 7351,
      "Ġexplanation": 7352,
      "Ġbeautiful": 7353,
      "Ġroyal": 7354,
      "TER": 7355,
      "iance": 7356,
      "Ġtree": 7357,
      "Ġwy": 7358,
      "Ġpier": 7359,
      "isms": 7360,
      "Ġmu": 7361,
      "Ġbn": 7362,
      "Ġelement": 7363,
      "Ġgate": 7364,
      "Ġadopt": 7365,
      "odes": 7366,
      "ĠCOM": 7367,
      "ĠDep": 7368,
      "Ġreception": 7369,
      "archives": 7370,
      "Ġattribut": 7371,
      "Ġpresents": 7372,
      "Ġrare": 7373,
      "Ġguest": 7374,
      "Ġscen": 7375,
      "Ġmode": 7376,
      "Ġfoundation": 7377,
      "berta": 7378,
      "Ġaudience": 7379,
      "Ġmovie": 7380,
      "Ġdeciding": 7381,
      "Ġpennsylvania": 7382,
      "Ġquotes": 7383,
      "ĠSPAM": 7384,
      "hd": 7385,
      "obert": 7386,
      "wb": 7387,
      "Ġpill": 7388,
      "Ġlis": 7389,
      "Ġstim": 7390,
      "Ġven": 7391,
      "Ġproof": 7392,
      "ems": 7393,
      "Ġrx": 7394,
      "anted": 7395,
      "Ġadapt": 7396,
      "Ġtrig": 7397,
      "Ġphili": 7398,
      "oble": 7399,
      "Ġhoward": 7400,
      "Ġrelief": 7401,
      "Ġmining": 7402,
      "Ġserial": 7403,
      "Ġproviders": 7404,
      "Ġcommunicate": 7405,
      "Ġconsidering": 7406,
      "Ġdatabases": 7407,
      "ginia": 7408,
      "Ġreturns": 7409,
      "Ġmagazine": 7410,
      "Ġdistinct": 7411,
      "Ġrecruiting": 7412,
      "iop": 7413,
      "oin": 7414,
      "rees": 7415,
      "ani": 7416,
      "Ġnich": 7417,
      "Ġnancy": 7418,
      "Ġforced": 7419,
      "amental": 7420,
      "Ġali": 7421,
      "Ġjr": 7422,
      "listman": 7423,
      "Ġpresence": 7424,
      "ĠInformation": 7425,
      "ĠThen": 7426,
      "Ġdonna": 7427,
      "ersonal": 7428,
      "Ġelectron": 7429,
      "Ġslav": 7430,
      "Ġsitu": 7431,
      "Ġinsert": 7432,
      "Ġphonetic": 7433,
      "Ġplaying": 7434,
      "Ġadvertise": 7435,
      "Ġteacher": 7436,
      "ARD": 7437,
      "Ġcutting": 7438,
      "ECOR": 7439,
      "Ġpremiere": 7440,
      "Ġafrican": 7441,
      "Ġtreatment": 7442,
      "Ġinfluence": 7443,
      "ĠPeople": 7444,
      "BL": 7445,
      "IE": 7446,
      "Ym": 7447,
      "aW": 7448,
      "gency": 7449,
      "kin": 7450,
      "mas": 7451,
      "Ġsir": 7452,
      "Ġwes": 7453,
      "Ġps": 7454,
      "oto": 7455,
      "ersion": 7456,
      "Ġsufficient": 7457,
      "Ġunfortunately": 7458,
      "Ġ512": 7459,
      "ĠCong": 7460,
      "ĠGNU": 7461,
      "Ġmanchester": 7462,
      "Ġoverview": 7463,
      "ĠUN": 7464,
      "Ġattending": 7465,
      "Ġrelation": 7466,
      "prises": 7467,
      "Ġpersonally": 7468,
      "Ġfactor": 7469,
      "ĠOnline": 7470,
      "Ġschools": 7471,
      "Ġholiday": 7472,
      "tenance": 7473,
      "Ġpleasure": 7474,
      "Ġcommitment": 7475,
      "Ġlitigation": 7476,
      "Ġthorough": 7477,
      "messages": 7478,
      "Qu": 7479,
      "].": 7480,
      "cons": 7481,
      "iest": 7482,
      "nu": 7483,
      "sg": 7484,
      "ora": 7485,
      "Ġeh": 7486,
      "Ġgest": 7487,
      "cher": 7488,
      "mental": 7489,
      "rix": 7490,
      "aret": 7491,
      "ĠMoney": 7492,
      "Ġamid": 7493,
      "Ġsaving": 7494,
      "Ġpermission": 7495,
      "Ġxan": 7496,
      "Ġimpossible": 7497,
      "span": 7498,
      "Ġflat": 7499,
      "Ġconstant": 7500,
      "Ġacquired": 7501,
      "Ġlinked": 7502,
      "Ġsmaller": 7503,
      "Ġcapitalfm": 7504,
      "Ġtypology": 7505,
      "Ġaffiliated": 7506,
      "Ġhappening": 7507,
      "Ġresponded": 7508,
      "Ġmassive": 7509,
      "Ġarguments": 7510,
      "Ġconfidentiality": 7511,
      "Ġappreciated": 7512,
      "legal": 7513,
      "Ġimplications": 7514,
      "Ġsplit": 7515,
      "Ġdipl": 7516,
      "94": 7517,
      "IST": 7518,
      "Qg": 7519,
      "del": 7520,
      "eb": 7521,
      "Ġsig": 7522,
      "Ġbot": 7523,
      "Ġ:-)": 7524,
      "Ġgent": 7525,
      "Ġisbn": 7526,
      "igen": 7527,
      "add": 7528,
      "Ġkh": 7529,
      "antic": 7530,
      "ĠSch": 7531,
      "ĠCH": 7532,
      "Ġhey": 7533,
      "ĠRuss": 7534,
      "Ġexport": 7535,
      "Ġdowngra": 7536,
      "Ġhelpful": 7537,
      "Ġrealize": 7538,
      "Ġjohnson": 7539,
      "Ġseemed": 7540,
      "Ġtelevision": 7541,
      "Ġreferenced": 7542,
      "Ġwatching": 7543,
      "Ġobjects": 7544,
      "Ġchristopher": 7545,
      "Ġformats": 7546,
      "AGE": 7547,
      "IX": 7548,
      "LA": 7549,
      "Now": 7550,
      "gt": 7551,
      "ku": 7552,
      "Â²": 7553,
      "isk": 7554,
      "Ġoem": 7555,
      "Ġdont": 7556,
      "illy": 7557,
      "--]": 7558,
      "story": 7559,
      "Ġhack": 7560,
      "Ġunsolicited": 7561,
      "osc": 7562,
      "ĠTips": 7563,
      "Ġspamassassin": 7564,
      "ĠMin": 7565,
      "ĠMost": 7566,
      "Ġsubsequ": 7567,
      "Ġ78": 7568,
      "Ġinformed": 7569,
      "Ġmails": 7570,
      "Ġoffshore": 7571,
      "Ġbush": 7572,
      "Ġbridge": 7573,
      "Ġjoined": 7574,
      "athan": 7575,
      "idential": 7576,
      "Ġreality": 7577,
      "Ġannounces": 7578,
      "Ġleadership": 7579,
      "Ġrelevance": 7580,
      "Ġexecuted": 7581,
      "Ġcompetitors": 7582,
      "Ġreasonable": 7583,
      "Ġcoupon": 7584,
      "Ġpsychology": 7585,
      "Ġspecify": 7586,
      "Ġobligations": 7587,
      "SL": 7588,
      "rell": 7589,
      "Ġboston": 7590,
      "iler": 7591,
      "Ġews": 7592,
      "eters": 7593,
      "left": 7594,
      "elph": 7595,
      "Ġconj": 7596,
      "Ġconver": 7597,
      "ĠCLICK": 7598,
      "ipe": 7599,
      "ĠPRO": 7600,
      "Ġnobody": 7601,
      "Ġphd": 7602,
      "phere": 7603,
      "Ġprec": 7604,
      "Ġrelax": 7605,
      "âĤ¬âĢļ": 7606,
      "Ġdepending": 7607,
      "Ġmedication": 7608,
      "aux": 7609,
      "Ġairport": 7610,
      "Ġrespective": 7611,
      "NDQ": 7612,
      "Ġhonor": 7613,
      "Ġprocedure": 7614,
      "Ġcitizens": 7615,
      "ĠLawrence": 7616,
      "Ġitalian": 7617,
      "DECOR": 7618,
      "FA": 7619,
      "FREE": 7620,
      "Here": 7621,
      "With": 7622,
      "host": 7623,
      "esp": 7624,
      "Ġ---": 7625,
      "Ġ-----------------": 7626,
      "Ġ212": 7627,
      "ema": 7628,
      "Ġjp": 7629,
      "Ġchase": 7630,
      "Ġcomplement": 7631,
      "cially": 7632,
      "arton": 7633,
      "ifier": 7634,
      "ĊĠĠĠĠĠĠĠĠĠĠĠĠĠ": 7635,
      "Ġinstru": 7636,
      "Ġprofiled": 7637,
      "Ġdealer": 7638,
      "Ġchev": 7639,
      "Ġpromote": 7640,
      "Ġmaterially": 7641,
      "Ġcovered": 7642,
      "Ġlabel": 7643,
      "Ġpersons": 7644,
      "erox": 7645,
      "Ġconvenient": 7646,
      "Ġsequence": 7647,
      "Ġspeculative": 7648,
      "ĠSaou": 7649,
      "Ġbarbara": 7650,
      "DECORATION": 7651,
      "/)": 7652,
      "GS": 7653,
      "Man": 7654,
      "^^": 7655,
      "vo": 7656,
      "Ġtil": 7657,
      "Ġwit": 7658,
      "Ġwild": 7659,
      "itory": 7660,
      "chronic": 7661,
      "Ġibm": 7662,
      "ayer": 7663,
      "Ġrough": 7664,
      "Ġkrist": 7665,
      "Ġuns": 7666,
      "ria": 7667,
      "Ġ900": 7668,
      "ĠMP": 7669,
      "ĠDO": 7670,
      "Ġedit": 7671,
      "Ġbelong": 7672,
      "Ġextension": 7673,
      "Ġbuyer": 7674,
      "atherine": 7675,
      "center": 7676,
      "product": 7677,
      "Ġbreaking": 7678,
      "Ġgreatly": 7679,
      "Ġauthent": 7680,
      "Ġlloyd": 7681,
      "Ġtests": 7682,
      "Ġbreakfast": 7683,
      "Ġtelling": 7684,
      "Ġelsewhere": 7685,
      "Ġfundamental": 7686,
      "Ġinterviews": 7687,
      "Ġassuming": 7688,
      "ĠPrice": 7689,
      "ĠALL": 7690,
      "ĠAfter": 7691,
      "Ġbinding": 7692,
      "Ġpertaining": 7693,
      "XR": 7694,
      "gas": 7695,
      "ĠÃ": 7696,
      "Ġaus": 7697,
      "Ġauction": 7698,
      "inq": 7699,
      "Ġthr": 7700,
      "Ġos": 7701,
      "Ġooo": 7702,
      "Ġlov": 7703,
      "Ġreject": 7704,
      "Ġkong": 7705,
      "Ġ83": 7706,
      "Ġsomewhat": 7707,
      "techn": 7708,
      "roups": 7709,
      "Ġsimpl": 7710,
      "Ġbreath": 7711,
      "Ġexplicit": 7712,
      "Ġacceptable": 7713,
      "Ġcontrols": 7714,
      "Ġdomains": 7715,
      "Ġpractices": 7716,
      "Ġconsulting": 7717,
      "------------------------------------------------------------------------": 7718,
      "Ġenvironmental": 7719,
      "Ġfavorite": 7720,
      "Ġextraction": 7721,
      "ĠTrade": 7722,
      "docs": 7723,
      "stein": 7724,
      "Ġscholars": 7725,
      "Jl": 7726,
      "bh": 7727,
      "jac": 7728,
      "lot": 7729,
      "qh": 7730,
      "qn": 7731,
      "vid": 7732,
      "Ġcin": 7733,
      "Ġcogs": 7734,
      "Ġlor": 7735,
      "Ġrent": 7736,
      "Ġgall": 7737,
      "Ġstick": 7738,
      "urally": 7739,
      "Ġwhe": 7740,
      "emple": 7741,
      "Ġchat": 7742,
      "Ġchurch": 7743,
      "ĠCard": 7744,
      "Ġamy": 7745,
      "ĠLockergnome": 7746,
      "Ġembed": 7747,
      "Ġpursu": 7748,
      "Ġsheila": 7749,
      "Ġreviewing": 7750,
      "Ġmanagers": 7751,
      "================================================": 7752,
      "Ġintroduct": 7753,
      "Ġnormally": 7754,
      "Ġopinions": 7755,
      "Ġgirls": 7756,
      "Ġdistinction": 7757,
      "Ġinnovative": 7758,
      "Ġgovernor": 7759,
      "Ġempir": 7760,
      "Ġexperienced": 7761,
      "Ġlavorato": 7762,
      "GU": 7763,
      "iu": 7764,
      "rator": 7765,
      "zes": 7766,
      "Ġthread": 7767,
      "Ġholl": 7768,
      "Ġnine": 7769,
      "leum": 7770,
      "Ġry": 7771,
      "Ġatl": 7772,
      "Ġ68": 7773,
      "Ġinvent": 7774,
      "Ġpreced": 7775,
      "Ġeverybody": 7776,
      "Ġstring": 7777,
      "Ġfocused": 7778,
      "Ġshipped": 7779,
      "venth": 7780,
      "Ġessential": 7781,
      "Ġcombination": 7782,
      "Ġdemonstr": 7783,
      "ĠService": 7784,
      "Ġwatson": 7785,
      "iourg": 7786,
      "Ġentreprene": 7787,
      "ĠCorporation": 7788,
      "!\"": 7789,
      "?\"": 7790,
      "RA": 7791,
      "best": 7792,
      "ele": 7793,
      "half": 7794,
      "ument": 7795,
      "vm": 7796,
      "Ġepm": 7797,
      "cho": 7798,
      "otal": 7799,
      "ested": 7800,
      "Ġorth": 7801,
      "iration": 7802,
      "osing": 7803,
      "ĠSIGN": 7804,
      "Ġmailbox": 7805,
      "ĠRH": 7806,
      "obby": 7807,
      "Ġindo": 7808,
      "Ġconserv": 7809,
      "Ġutrecht": 7810,
      "Ġoptimal": 7811,
      "Ġfamil": 7812,
      "Ġheader": 7813,
      "Ġnorthwest": 7814,
      "************************************************": 7815,
      "Ġwondering": 7816,
      "Ġcounterparties": 7817,
      "IiB": 7818,
      "Ġhesitate": 7819,
      "At": 7820,
      "Any": 7821,
      "books": 7822,
      "fc": 7823,
      "kj": 7824,
      "raries": 7825,
      "vcm": 7826,
      "Ġaven": 7827,
      "invest": 7828,
      "Ġped": 7829,
      "Ġharm": 7830,
      "arc": 7831,
      "-->": 7832,
      "Ġeu": 7833,
      "Ġandy": 7834,
      "Ġgt": 7835,
      "cean": 7836,
      "address": 7837,
      "abs": 7838,
      "ĠTired": 7839,
      "Ġnewsp": 7840,
      "ĠWH": 7841,
      "tex": 7842,
      "Ġrecover": 7843,
      "Ġlapt": 7844,
      "Ġmaintenance": 7845,
      "prof": 7846,
      "Ġaccessible": 7847,
      "OUND": 7848,
      "ennis": 7849,
      "Ġpurchasing": 7850,
      "ALB": 7851,
      "Ġsubscribe": 7852,
      "Ġsociolinguistics": 7853,
      "Ġarrive": 7854,
      "Ġlearned": 7855,
      "Ġtransferred": 7856,
      "ĠTech": 7857,
      "Ġaux": 7858,
      "related": 7859,
      "Ġpenny": 7860,
      "Ġfairly": 7861,
      "Ġcoordinator": 7862,
      "Ġprocedures": 7863,
      "Ġsquare": 7864,
      "ONEY": 7865,
      "AK": 7866,
      "Con": 7867,
      "DNet": 7868,
      "hand": 7869,
      "jan": 7870,
      "mo": 7871,
      "rical": 7872,
      "some": 7873,
      "uous": 7874,
      "Ġsr": 7875,
      "Ġbg": 7876,
      "Ġdivid": 7877,
      "edy": 7878,
      "oming": 7879,
      "Ġnorton": 7880,
      "Ġeat": 7881,
      "raft": 7882,
      "istribut": 7883,
      "Ġalph": 7884,
      "Ġhair": 7885,
      "ĠMatthias": 7886,
      "Ġtea": 7887,
      "Ġappe": 7888,
      "ĠLet": 7889,
      "Ġprest": 7890,
      "Ġdefined": 7891,
      "ÂģâĢŀ": 7892,
      "Ġutter": 7893,
      "Ġstrugg": 7894,
      "Ġtotally": 7895,
      "Ġdescriptions": 7896,
      "after": 7897,
      "Ġmodeling": 7898,
      "Ġmovies": 7899,
      "Ġcontaining": 7900,
      "Ġpaliourg": 7901,
      "Ġanticipates": 7902,
      "Ġattempts": 7903,
      "Ġethn": 7904,
      "Ġgathering": 7905,
      "Ġucla": 7906,
      "Ġfacilitate": 7907,
      "Ġassembly": 7908,
      "IVE": 7909,
      "bug": 7910,
      "nan": 7911,
      "vc": 7912,
      "Ġcow": 7913,
      "Ġpure": 7914,
      "Ġpoll": 7915,
      "Ġporn": 7916,
      "Ġfro": 7917,
      "Ġfle": 7918,
      "Ġbail": 7919,
      "edu": 7920,
      "Ġlag": 7921,
      "Ġebs": 7922,
      "entially": 7923,
      "step": 7924,
      "through": 7925,
      "ques": 7926,
      "Ġnotify": 7927,
      "aka": 7928,
      "anda": 7929,
      "ĠOut": 7930,
      "Ġpeop": 7931,
      "Ġedward": 7932,
      "Ġmanner": 7933,
      "Ġtransition": 7934,
      "Ġdeserve": 7935,
      "Ġlaugh": 7936,
      "âĤ¬Âģ": 7937,
      "upid": 7938,
      "Ġsupports": 7939,
      "ĠÂĴ": 7940,
      "20020": 7941,
      "Ġclassified": 7942,
      "Ġtalked": 7943,
      "ITH": 7944,
      "Ġeffectively": 7945,
      "Ġconcepts": 7946,
      "Ġsignificantly": 7947,
      "ĠIslands": 7948,
      "Ġsecretary": 7949,
      "Ġfigures": 7950,
      "Ġlosing": 7951,
      "Ġperfectly": 7952,
      "trans": 7953,
      "Ġpronunci": 7954,
      "Ġeyes": 7955,
      "Ġignore": 7956,
      "Ġgreek": 7957,
      "Af": 7958,
      "ME": 7959,
      "direct": 7960,
      "oRK": 7961,
      "post": 7962,
      "tes": 7963,
      "zb": 7964,
      "Ġmun": 7965,
      "Ġbod": 7966,
      "Ġbang": 7967,
      "Ġbold": 7968,
      "Ġdj": 7969,
      "Ġdos": 7970,
      "Ġdys": 7971,
      "Ġanton": 7972,
      "Ġhous": 7973,
      "Ġye": 7974,
      "oted": 7975,
      "ols": 7976,
      "terms": 7977,
      "Ġrto": 7978,
      "Ġchain": 7979,
      "apse": 7980,
      "ĠPal": 7981,
      "Ġ750": 7982,
      "indy": 7983,
      "phonic": 7984,
      "Ġ125": 7985,
      "Ġdealing": 7986,
      "Ġmodal": 7987,
      "Ġcalend": 7988,
      "Ġsigning": 7989,
      "Ġbuyers": 7990,
      "Ġsupported": 7991,
      "Ġsemi": 7992,
      "Ġinfin": 7993,
      "Ġclaimed": 7994,
      "Ġqualified": 7995,
      "Ġdrawn": 7996,
      "AME": 7997,
      "scape": 7998,
      "ĠAdam": 7999,
      "Ġhumanities": 8000,
      "ĠUSD": 8001,
      "Ġeducational": 8002,
      "Ġgermanic": 8003,
      "Ġduty": 8004,
      "Ġjackie": 8005,
      "Ġintroduced": 8006,
      "Ġlecture": 8007,
      "acific": 8008,
      "Ġsubsidiary": 8009,
      "Ġconclusion": 8010,
      "ĠHelvetica": 8011,
      "Ġnewswires": 8012,
      "Ġlegitimate": 8013,
      "Ġequivalent": 8014,
      "Ġdeveiop": 8015,
      "elphia": 8016,
      "Ġepmi": 8017,
      "Home": 8018,
      "Ig": 8019,
      "URL": 8020,
      "ais": 8021,
      "di": 8022,
      "pZ": 8023,
      "vard": 8024,
      "Ġul": 8025,
      "Ġvel": 8026,
      "Ġaid": 8027,
      "report": 8028,
      "Ġcant": 8029,
      "Ġfred": 8030,
      "Ġmig": 8031,
      "Ġhat": 8032,
      "Ġhid": 8033,
      "Ġnations": 8034,
      "Ġongoing": 8035,
      "ayes": 8036,
      "Ġnotified": 8037,
      "outs": 8038,
      "agu": 8039,
      "ĠPublic": 8040,
      "Ġ202": 8041,
      "Ġprescri": 8042,
      "Ġzimin": 8043,
      "ashington": 8044,
      "Ġgenerating": 8045,
      "Ġearning": 8046,
      "Ġlimits": 8047,
      "Ġseconds": 8048,
      "ipping": 8049,
      "Ġsearching": 8050,
      "Ġwarrant": 8051,
      "Ġbrain": 8052,
      "Ġtemper": 8053,
      "olinguistic": 8054,
      "ĠOSDN": 8055,
      "Ġphenomenon": 8056,
      "ĠApple": 8057,
      "Ġaccurate": 8058,
      "ĠMurphy": 8059,
      "anguage": 8060,
      "CB": 8061,
      "dney": 8062,
      "has": 8063,
      "hood": 8064,
      "nl": 8065,
      "Â£": 8066,
      "information": 8067,
      "inphonic": 8068,
      "Ġsoph": 8069,
      "orer": 8070,
      "enc": 8071,
      "Ġfern": 8072,
      "Ġbc": 8073,
      "Ġdas": 8074,
      "Ġdol": 8075,
      "Ġanita": 8076,
      "Ġyield": 8077,
      "enth": 8078,
      "Ġga": 8079,
      "idad": 8080,
      "imple": 8081,
      "Ġneigh": 8082,
      "ĠĠĠĠĠĠĠĠĠĠĠ": 8083,
      "ĠTime": 8084,
      "udes": 8085,
      "Ġsocal": 8086,
      "ĠPHP": 8087,
      "ugen": 8088,
      "lectronic": 8089,
      "Ġempt": 8090,
      "Ġdirections": 8091,
      "Ġmetaphor": 8092,
      "Ġmostly": 8093,
      "Ġcreditors": 8094,
      "iiii": 8095,
      "Ġlarry": 8096,
      "Ġmoves": 8097,
      "Ġ?????": 8098,
      "Ġaimee": 8099,
      "Ġpriced": 8100,
      "Ġclause": 8101,
      "itzer": 8102,
      "Ġprinciple": 8103,
      "Ġbibli": 8104,
      "July": 8105,
      "Sec": 8106,
      "UST": 8107,
      "eana": 8108,
      "watch": 8109,
      "Ġtro": 8110,
      "Ġein": 8111,
      "Ġgee": 8112,
      "Ġgruyter": 8113,
      "chen": 8114,
      "Ġkat": 8115,
      "ifies": 8116,
      "ĠMillion": 8117,
      "ĠWOR": 8118,
      "------------------------": 8119,
      "Ġarth": 8120,
      "ĠDaily": 8121,
      "Ġentit": 8122,
      "ahon": 8123,
      "Ġnewsletters": 8124,
      "Ġtakeover": 8125,
      "exp": 8126,
      "Ġincreases": 8127,
      "ync": 8128,
      "3390": 8129,
      "Ġstructural": 8130,
      "anned": 8131,
      "Ġdescribe": 8132,
      "Ġtreated": 8133,
      "Ġautomated": 8134,
      "Ġproducer": 8135,
      "Ġmsn": 8136,
      "Ġillinois": 8137,
      "Ġintelligent": 8138,
      "Ġcounterparty": 8139,
      "groups": 8140,
      "Ġpotentially": 8141,
      "Ġcolloquium": 8142,
      "Ġportugues": 8143,
      "Ġmultimedia": 8144,
      "(\"": 8145,
      "2000": 8146,
      "300": 8147,
      "SU": 8148,
      "Sent": 8149,
      "ben": 8150,
      "spe": 8151,
      "wc": 8152,
      "Ġts": 8153,
      "Ġfer": 8154,
      "Ġfant": 8155,
      "Ġbrent": 8156,
      "Ġdf": 8157,
      "Ġhans": 8158,
      "Ġlod": 8159,
      "Ġljm": 8160,
      "Ġgif": 8161,
      "igm": 8162,
      "Ġprove": 8163,
      "Ġenab": 8164,
      "urers": 8165,
      "adelphia": 8166,
      "ailable": 8167,
      "Ġja": 8168,
      "cket": 8169,
      "agement": 8170,
      "Ġspir": 8171,
      "Ġdose": 8172,
      "Ġ650": 8173,
      "ĠBE": 8174,
      "ocracy": 8175,
      "Ġovernight": 8176,
      "Ġfinished": 8177,
      "Ġemphas": 8178,
      "Ġwellhead": 8179,
      "Ġ140": 8180,
      "rett": 8181,
      "Ġmemo": 8182,
      "OUR": 8183,
      "ĠĊĠĠĠĠĠĠĠĠĠĠĠĠĠĠĠĠĠĠĠĠĠĠĠĠĠ": 8184,
      "Web": 8185,
      "Ġbullet": 8186,
      "Ġexpressions": 8187,
      "Ġholdings": 8188,
      "PSI": 8189,
      "refcode": 8190,
      "Ġlawsuits": 8191,
      "Ġinquiries": 8192,
      "install": 8193,
      "Ġpetroleum": 8194,
      "Ġprincipal": 8195,
      "Ġchevron": 8196,
      "bra": 8197,
      "jam": 8198,
      "mand": 8199,
      "would": 8200,
      "Ġsrc": 8201,
      "anical": 8202,
      "Ġmd": 8203,
      "ali": 8204,
      "Ġele": 8205,
      "Ġgard": 8206,
      "owa": 8207,
      "Ġ220": 8208,
      "quick": 8209,
      "abil": 8210,
      "aine": 8211,
      "ĠCredit": 8212,
      "ĠWar": 8213,
      "ĠWeek": 8214,
      "Ġentries": 8215,
      "Ġflu": 8216,
      "Ġgenerative": 8217,
      "Ġbeliefs": 8218,
      "Ġbasically": 8219,
      "Ġofficers": 8220,
      "Ġrepresentatives": 8221,
      "engu": 8222,
      "Ġteams": 8223,
      "ĠXP": 8224,
      "Ġwarning": 8225,
      "writing": 8226,
      "Ġmagn": 8227,
      "Ġconsistent": 8228,
      "Ġlinda": 8229,
      "Ġattachments": 8230,
      "Ġcomponent": 8231,
      "Ġmultilingual": 8232,
      "DR": 8233,
      "iency": 8234,
      "km": 8235,
      "lg": 8236,
      "ni": 8237,
      "nom": 8238,
      "pine": 8239,
      "rand": 8240,
      "wlett": 8241,
      "Ġsel": 8242,
      "Ġdim": 8243,
      "ingly": 8244,
      "Ġls": 8245,
      "Ġlie": 8246,
      "icious": 8247,
      "etime": 8248,
      "Ġ:-": 8249,
      "Ġgotten": 8250,
      "ige": 8251,
      "Ġascii": 8252,
      "Ġcham": 8253,
      "ĠTV": 8254,
      "ĠSource": 8255,
      "ĠSouth": 8256,
      "Ġcancel": 8257,
      "ĠAcc": 8258,
      "elled": 8259,
      "Ġresell": 8260,
      "erved": 8261,
      "Ġcorn": 8262,
      "ĠEvery": 8263,
      "ĠEFF": 8264,
      "Ġedited": 8265,
      "Ġcovers": 8266,
      "Ġbuff": 8267,
      "Ġformation": 8268,
      "Ġraising": 8269,
      "their": 8270,
      "prom": 8271,
      "Ġdecade": 8272,
      "cover": 8273,
      "Ġpersonnel": 8274,
      "ordan": 8275,
      "lik": 8276,
      "Ġaffairs": 8277,
      "Ġpatent": 8278,
      "Ġholds": 8279,
      "Ġconnections": 8280,
      "Ġbrazil": 8281,
      "Ġimproved": 8282,
      "Ġaims": 8283,
      "Ġmelissa": 8284,
      "ĠGuide": 8285,
      "Ġsyllable": 8286,
      "Ġhospital": 8287,
      "Is": 8288,
      "KS": 8289,
      "bitch": 8290,
      "zona": 8291,
      "Ġaa": 8292,
      "Ġsab": 8293,
      "Ġcfo": 8294,
      "Ġcds": 8295,
      "Ġwis": 8296,
      "ouid": 8297,
      "alis": 8298,
      "Ġnarr": 8299,
      "Ġ_/": 8300,
      "Ġist": 8301,
      "strom": 8302,
      "eman": 8303,
      "Ġalan": 8304,
      "Ġsegment": 8305,
      "Ġsections": 8306,
      "ĠMONEY": 8307,
      "ĠDirect": 8308,
      "Ġ101": 8309,
      "Ġbusy": 8310,
      "Ġsubjects": 8311,
      "Ġformula": 8312,
      "Ġstatist": 8313,
      "Ġscale": 8314,
      "Ġsmtp": 8315,
      "Ġvisiting": 8316,
      "Ġinternation": 8317,
      "Ġforesee": 8318,
      "Ġwinter": 8319,
      "Ġcontrovers": 8320,
      "ĠINF": 8321,
      "Ġcontribute": 8322,
      "Ġphiladelphia": 8323,
      "ĠDoes": 8324,
      "Ġphrases": 8325,
      "Ġfelt": 8326,
      "Ġmcmahon": 8327,
      "System": 8328,
      "UG": 8329,
      "cp": 8330,
      "cv": 8331,
      "cvs": 8332,
      "every": 8333,
      "gz": 8334,
      "war": 8335,
      "inate": 8336,
      "Ġske": 8337,
      "Ġcer": 8338,
      "Ġcun": 8339,
      "Ġpia": 8340,
      "Ġpitt": 8341,
      "esh": 8342,
      "Ġmaker": 8343,
      "Ġbits": 8344,
      "Ġot": 8345,
      "Ġdans": 8346,
      "Ġhil": 8347,
      "Ġtoken": 8348,
      "Ġisrael": 8349,
      "Ġbecoming": 8350,
      "stances": 8351,
      "Ġstores": 8352,
      "Ġwharton": 8353,
      "emes": 8354,
      "Ġuseless": 8355,
      "riff": 8356,
      "Ġadject": 8357,
      "Ġadequ": 8358,
      "Ġspur": 8359,
      "ĠMo": 8360,
      "ipul": 8361,
      "cles": 8362,
      "ĠPR": 8363,
      "ĠBrit": 8364,
      "Ġafx": 8365,
      "Ġrecon": 8366,
      "Ġdirected": 8367,
      "Ġcolumb": 8368,
      "Ġjanet": 8369,
      "Ġrepresentations": 8370,
      "Ġpercentage": 8371,
      "Ġcouid": 8372,
      "Ġinstruction": 8373,
      "Ġredhat": 8374,
      "Ġmachines": 8375,
      "pecific": 8376,
      "Ġcharacters": 8377,
      "Ġcomfortable": 8378,
      "Business": 8379,
      "Gu": 8380,
      "IB": 8381,
      "Ste": 8382,
      "mith": 8383,
      "nN": 8384,
      "wis": 8385,
      "erate": 8386,
      "orf": 8387,
      "Ġfab": 8388,
      "Ġboss": 8389,
      "Ġdpr": 8390,
      "Ġhier": 8391,
      "Ġyap": 8392,
      "Ġster": 8393,
      "Ġends": 8394,
      "osen": 8395,
      "Ġub": 8396,
      "ĠCar": 8397,
      "Ġanytime": 8398,
      "ĠPresident": 8399,
      "izations": 8400,
      "ĠWILL": 8401,
      "Ġoutlook": 8402,
      "ĠEven": 8403,
      "ensions": 8404,
      "Ġserved": 8405,
      "onto": 8406,
      "Ġsignal": 8407,
      "Ġswed": 8408,
      "ĠUnison": 8409,
      "Ġidentification": 8410,
      "Ġsatell": 8411,
      "Ġcollapse": 8412,
      "Ġreasoning": 8413,
      "Ġaudit": 8414,
      "Ġdupl": 8415,
      "Ġcontribution": 8416,
      "Ġprinter": 8417,
      "Ġmatches": 8418,
      "Ġassessment": 8419,
      "ĠSpamAssassin": 8420,
      "orrect": 8421,
      "Ġxanax": 8422,
      "Ġavenue": 8423,
      "@@": 8424,
      "Copyright": 8425,
      "LM": 8426,
      "aid": 8427,
      "cers": 8428,
      "pass": 8429,
      "uy": 8430,
      "zd": 8431,
      "Ġtill": 8432,
      "orter": 8433,
      "Ġdl": 8434,
      "ala": 8435,
      "Ġhits": 8436,
      "ceive": 8437,
      "Ġbear": 8438,
      "Ġstupid": 8439,
      "utical": 8440,
      "ample": 8441,
      "ulf": 8442,
      "ĠIP": 8443,
      "ĠIm": 8444,
      "Ġsees": 8445,
      "Ġshi": 8446,
      "Ġshock": 8447,
      "ector": 8448,
      "ĠToday": 8449,
      "ressed": 8450,
      "ĠBACK": 8451,
      "Ġarbit": 8452,
      "ĠLo": 8453,
      "Ġsecured": 8454,
      "Ġtranswestern": 8455,
      "Ġxerox": 8456,
      "Ġnetco": 8457,
      "Ġrevolution": 8458,
      "anna": 8459,
      "blog": 8460,
      "Ġinstallation": 8461,
      "Ġtells": 8462,
      "Ġorganizers": 8463,
      "Ġsettlement": 8464,
      "Ġdeposited": 8465,
      "celona": 8466,
      "Ġsatisfaction": 8467,
      "Ġdedicated": 8468,
      "Ġmutual": 8469,
      "ĠGeneral": 8470,
      "Ġfamilies": 8471,
      "619": 8472,
      "MENT": 8473,
      "Ph": 8474,
      "VS": 8475,
      "case": 8476,
      "money": 8477,
      "ooth": 8478,
      "woman": 8479,
      "xon": 8480,
      "eration": 8481,
      "orph": 8482,
      "Ġmission": 8483,
      "Ġbugs": 8484,
      "Ġnp": 8485,
      "Ġnt": 8486,
      "Ġgon": 8487,
      "iment": 8488,
      "irt": 8489,
      "oppy": 8490,
      "oses": 8491,
      "ĠĠĠĠĠĠĠĠĠĠĠĠĠĠĠ": 8492,
      "ellow": 8493,
      "ĠFoRK": 8494,
      "Ġmailed": 8495,
      "ĠBY": 8496,
      "obs": 8497,
      "ĠEMAIL": 8498,
      "teen": 8499,
      "ĠInvest": 8500,
      "velopment": 8501,
      "Ġflor": 8502,
      "Ġcarri": 8503,
      "Ġsigns": 8504,
      "ordon": 8505,
      "Ġclicking": 8506,
      "egroups": 8507,
      "Ġsupplies": 8508,
      "Ġleaders": 8509,
      "Ġwishes": 8510,
      "Ġregardless": 8511,
      "Ġlatter": 8512,
      "graduate": 8513,
      "Ġconnected": 8514,
      "Ġproperly": 8515,
      "Ġtaxes": 8516,
      "Ġprinted": 8517,
      "Ġreliant": 8518,
      "--------------------------------------------------------------------": 8519,
      "Ġconstitutes": 8520,
      "Ġkimber": 8521,
      "Ġconfiguration": 8522,
      "Ġmontreal": 8523,
      "Ġdriver": 8524,
      "Advert": 8525,
      "Ġpermanent": 8526,
      "Ġtongue": 8527,
      "Ġslightly": 8528,
      "NO": 8529,
      "TV": 8530,
      "cb": 8531,
      "fy": 8532,
      "gue": 8533,
      "md": 8534,
      "erver": 8535,
      "erman": 8536,
      "Ġcos": 8537,
      "Ġcass": 8538,
      "Ġwer": 8539,
      "Ġbund": 8540,
      "Ġhell": 8541,
      "Ġeogi": 8542,
      "stra": 8543,
      "Ġalter": 8544,
      "ulous": 8545,
      "Ġnotion": 8546,
      "ifi": 8547,
      "ĠFed": 8548,
      "ĠFirst": 8549,
      "ĠOFF": 8550,
      "ĠNEW": 8551,
      "ĠHis": 8552,
      "ĠGe": 8553,
      "ĠGrants": 8554,
      "Ġbeta": 8555,
      "Ġstatistics": 8556,
      "Ġdeleted": 8557,
      "Ġscore": 8558,
      "Ġdevelopers": 8559,
      "Ġdrives": 8560,
      "Ġdecre": 8561,
      "Ġsuccessfully": 8562,
      "ĠOnly": 8563,
      "Ġsummar": 8564,
      "ynote": 8565,
      "ĠComputer": 8566,
      "Ġmoore": 8567,
      "Ġdisclosed": 8568,
      "author": 8569,
      "Ġimplemented": 8570,
      "Ġperspectives": 8571,
      "ĠSystems": 8572,
      "ĠUniversity": 8573,
      "Ġourselves": 8574,
      "hen": 8575,
      "iences": 8576,
      "wi": 8577,
      "Ġpil": 8578,
      "anet": 8579,
      "Ġgun": 8580,
      "Ġisland": 8581,
      "Ġbecomes": 8582,
      "raid": 8583,
      "stand": 8584,
      "igible": 8585,
      "pper": 8586,
      "ĠSH": 8587,
      "ĠAP": 8588,
      "Ġresuits": 8589,
      "ĠPart": 8590,
      "Ġ73": 8591,
      "Ġuniversita": 8592,
      "Ġ1991": 8593,
      "Ġcurves": 8594,
      "Ġvalued": 8595,
      "Ġcomputation": 8596,
      "Ġsubmitting": 8597,
      "Ġshortly": 8598,
      "ipped": 8599,
      "forteana": 8600,
      "Ġpiease": 8601,
      "Ġbirth": 8602,
      "Ġlicensed": 8603,
      "ĠCommunications": 8604,
      "Ġcollaboration": 8605,
      "Ġfavour": 8606,
      "Ġcontempor": 8607,
      "LD": 8608,
      "Linux": 8609,
      "TW": 8610,
      "UN": 8611,
      "held": 8612,
      "non": 8613,
      "rics": 8614,
      "tb": 8615,
      "Ġdick": 8616,
      "alley": 8617,
      "omy": 8618,
      "Ġgap": 8619,
      "usa": 8620,
      "Ġont": 8621,
      "olas": 8622,
      "Ġenforce": 8623,
      "Ġasap": 8624,
      "Ġrf": 8625,
      "Ġrul": 8626,
      "Ġhaw": 8627,
      "Ġexists": 8628,
      "ptive": 8629,
      "ĠSpecial": 8630,
      "oster": 8631,
      "anya": 8632,
      "ĠFind": 8633,
      "Ġperception": 8634,
      "Ġarn": 8635,
      "Ġspec": 8636,
      "Ġtransm": 8637,
      "Ġgenetic": 8638,
      "Ġrace": 8639,
      "Ġadvises": 8640,
      "Ġmedium": 8641,
      "Ġexploration": 8642,
      "Ġinfl": 8643,
      "Ġwinner": 8644,
      "Ġinvolves": 8645,
      "OME": 8646,
      "Ġnoms": 8647,
      "ĠChanges": 8648,
      "Ġboxes": 8649,
      "Ġfallen": 8650,
      "Ġobjective": 8651,
      "ermios": 8652,
      "Ġpredic": 8653,
      "Ġpremier": 8654,
      "Ġwidely": 8655,
      "Ġwonderful": 8656,
      "security": 8657,
      "DQo": 8658,
      "YWdl": 8659,
      "\\/\\/\\/\\/\\/\\/\\/\\/": 8660,
      "Ġbryan": 8661,
      "Ġempty": 8662,
      "Not": 8663,
      "Us": 8664,
      "care": 8665,
      "mie": 8666,
      "rat": 8667,
      "sightings": 8668,
      "vy": 8669,
      "yp": 8670,
      "inent": 8671,
      "Ġcot": 8672,
      "Ġcock": 8673,
      "ische": 8674,
      "Ġdc": 8675,
      "Ġng": 8676,
      "Ġei": 8677,
      "Ġreward": 8678,
      "urb": 8679,
      "them": 8680,
      "Ġrig": 8681,
      "Ġ550": 8682,
      "Ġabuse": 8683,
      "ague": 8684,
      "Ġleiden": 8685,
      "Ġinteractive": 8686,
      "ĠMedia": 8687,
      "Ġ81": 8688,
      "Ġtimely": 8689,
      "Ġphill": 8690,
      "ĠOffice": 8691,
      "Ġsomebody": 8692,
      "Ġinvested": 8693,
      "lli": 8694,
      "Ġpool": 8695,
      "uchet": 8696,
      "âĤ¬âĢĿ": 8697,
      "Ġexplore": 8698,
      "Ġjane": 8699,
      "Ġderived": 8700,
      "Ġtradition": 8701,
      "support": 8702,
      "Ġviruses": 8703,
      "Ġmissed": 8704,
      "Ġcontexts": 8705,
      "Ġdefinition": 8706,
      "Ġvowels": 8707,
      "Ġjuan": 8708,
      "Ġfraud": 8709,
      "Ġmistake": 8710,
      "Ġpowers": 8711,
      "ĠANY": 8712,
      "ĠCongress": 8713,
      "Ġpronunciation": 8714,
      "Ġskept": 8715,
      "Well": 8716,
      "aus": 8717,
      "first": 8718,
      "rm": 8719,
      "uz": 8720,
      "via": 8721,
      "Ã³": 8722,
      "Ġtone": 8723,
      "Ġawa": 8724,
      "oned": 8725,
      "Ġsom": 8726,
      "etts": 8727,
      "rage": 8728,
      "Ġstem": 8729,
      "Ġvasant": 8730,
      "iminal": 8731,
      "imately": 8732,
      "Ġkid": 8733,
      "open": 8734,
      "Ġshape": 8735,
      "ounter": 8736,
      "ĠCopyright": 8737,
      "Ġsubst": 8738,
      "ĠWITH": 8739,
      "Ġ82": 8740,
      "Ġaging": 8741,
      "ounded": 8742,
      "Ġtransform": 8743,
      "Ġreminder": 8744,
      "Ġkeynote": 8745,
      "131": 8746,
      "Ġcounty": 8747,
      "Ġdefense": 8748,
      "Ġsurr": 8749,
      "Ġ272": 8750,
      "Ġopened": 8751,
      "Ġshowed": 8752,
      "Ġeconomics": 8753,
      "flow": 8754,
      "Ġfilled": 8755,
      "Ġbottle": 8756,
      "Ġhomeland": 8757,
      "discipl": 8758,
      "New": 8759,
      "Ġaffordable": 8760,
      "Ġcelebr": 8761,
      "Ġdissertation": 8762,
      "Ġintroductory": 8763,
      "Can": 8764,
      "Don": 8765,
      "IAA": 8766,
      "Vf": 8767,
      "Ġsanta": 8768,
      "Ġcars": 8769,
      "Ġws": 8770,
      "Ġhate": 8771,
      "Ġhott": 8772,
      "asc": 8773,
      "unders": 8774,
      "Ġstron": 8775,
      "Ġstone": 8776,
      "utive": 8777,
      "Ġjur": 8778,
      "Ġweap": 8779,
      "ours": 8780,
      "Ġshot": 8781,
      "ĠĠĠĠĠĠĠĠĠĠĠĠĠĠ": 8782,
      "udio": 8783,
      "Ġinterconnect": 8784,
      "Ġanymore": 8785,
      "ĠDE": 8786,
      "ĠHermios": 8787,
      "Ġmarketplace": 8788,
      "Ġaccord": 8789,
      "Ġthemes": 8790,
      "Ġrelating": 8791,
      "Ġcalger": 8792,
      "when": 8793,
      "Ġexplo": 8794,
      "ĠĊĠĠĠĠĠĠĠĠĠ": 8795,
      "Ġleads": 8796,
      "ika": 8797,
      "Ġtested": 8798,
      "aranteed": 8799,
      "OTE": 8800,
      "ĠAssoci": 8801,
      "visor": 8802,
      "Ġrocket": 8803,
      "Ġallocated": 8804,
      "Ġspecified": 8805,
      "Ġcertific": 8806,
      "ĠOctober": 8807,
      "Ġaccomplish": 8808,
      "Ġslavic": 8809,
      "XJ": 8810,
      "brew": 8811,
      "een": 8812,
      "nings": 8813,
      "ti": 8814,
      "Ġ_______________________________________________": 8815,
      "Ġtanya": 8816,
      "onven": 8817,
      "Ġsac": 8818,
      "Ġpy": 8819,
      "isse": 8820,
      "Ġ-[": 8821,
      "Ġbaylor": 8822,
      "edyn": 8823,
      "icles": 8824,
      "Ġyu": 8825,
      "idays": 8826,
      "uto": 8827,
      "Ġvary": 8828,
      "seb": 8829,
      "Ġunus": 8830,
      "endous": 8831,
      "ĠPowell": 8832,
      "achus": 8833,
      "Ġqueries": 8834,
      "Ġinvoice": 8835,
      "ĠHetting": 8836,
      "Ġmanus": 8837,
      "Ġassured": 8838,
      "Ġrecall": 8839,
      "Ġrecovery": 8840,
      "Ġtwice": 8841,
      "ĠIns": 8842,
      "Ġevol": 8843,
      "Ġscre": 8844,
      "rica": 8845,
      "They": 8846,
      "Ġsolve": 8847,
      "Ġspecialist": 8848,
      "ÂģâĢĶ": 8849,
      "Ġconsideration": 8850,
      "Ġheads": 8851,
      "Ġkinds": 8852,
      "ITY": 8853,
      "Ġreplaced": 8854,
      "Ġinitially": 8855,
      "Ġlatex": 8856,
      "Ġcognition": 8857,
      "---------------------------------------------------------------------": 8858,
      "Ġadvisory": 8859,
      "Ġpharmacy": 8860,
      "Ġfemale": 8861,
      "Ġoverseas": 8862,
      "Ġpronouns": 8863,
      "ĠBuild": 8864,
      "aughter": 8865,
      "ĠMarketing": 8866,
      "Ġtrigger": 8867,
      "Ġportuguese": 8868,
      "ĠHettinga": 8869,
      "?)": 8870,
      "bas": 8871,
      "fi": 8872,
      "ju": 8873,
      "och": 8874,
      "sue": 8875,
      "wire": 8876,
      "Ġath": 8877,
      "Ġdall": 8878,
      "Ġinclus": 8879,
      "Ġrein": 8880,
      "raine": 8881,
      "Ġvk": 8882,
      "Ġoral": 8883,
      "Ġcompaq": 8884,
      "ĠSO": 8885,
      "ĠSee": 8886,
      "Ġaggreg": 8887,
      "ĠName": 8888,
      "Ġrot": 8889,
      "Ġsomehow": 8890,
      "rypt": 8891,
      "Ġexpanding": 8892,
      "Ġremind": 8893,
      "Ġdirectories": 8894,
      "Ġ20020": 8895,
      "Ġkeys": 8896,
      "Ġcriter": 8897,
      "Ġcrude": 8898,
      "Ġlogos": 8899,
      "Ġlogistics": 8900,
      "Ġsalary": 8901,
      "Ġrepresents": 8902,
      "ĠUnder": 8903,
      "Ġskin": 8904,
      "ILY": 8905,
      "Ġproducing": 8906,
      "Ġeventually": 8907,
      "topic": 8908,
      "Ġrecognized": 8909,
      "Ġsatisfied": 8910,
      "Ġdestroy": 8911,
      "Ġsensitive": 8912,
      "Ġfemin": 8913,
      "teledyn": 8914,
      "Ġbrenda": 8915,
      "Ġempirical": 8916,
      "\";": 8917,
      ".*": 8918,
      "BE": 8919,
      "BhZ": 8920,
      "CP": 8921,
      "cat": 8922,
      "cultural": 8923,
      "rill": 8924,
      "Ġcv": 8925,
      "isd": 8926,
      "Ġmseb": 8927,
      "Ġbinary": 8928,
      "Ġdun": 8929,
      "arn": 8930,
      "etz": 8931,
      "eliver": 8932,
      "Ġvast": 8933,
      "ulk": 8934,
      "irk": 8935,
      "Ġshoot": 8936,
      "outon": 8937,
      "ĠTemple": 8938,
      "aint": 8939,
      "ĠSol": 8940,
      "aph": 8941,
      "ĠMus": 8942,
      "Ġdise": 8943,
      "ĠDate": 8944,
      "Ġbrings": 8945,
      "Ġdealings": 8946,
      "Ġbroken": 8947,
      "ordination": 8948,
      "Ġgreatest": 8949,
      "commend": 8950,
      "Ġmmcf": 8951,
      "Ġhotels": 8952,
      "Ġstopped": 8953,
      "ĠChris": 8954,
      "Ġresponsibilities": 8955,
      "ĠAdminist": 8956,
      "Ġbringing": 8957,
      "Ġtracking": 8958,
      "cripts": 8959,
      "Ġlibraries": 8960,
      "Ġrecorded": 8961,
      "Ġdebate": 8962,
      "Ġscientists": 8963,
      "MBER": 8964,
      "Ġmanufacturing": 8965,
      "ĠEngine": 8966,
      "Ġlicensing": 8967,
      "Ġpreparation": 8968,
      "400": 8969,
      "LC": 8970,
      "NN": 8971,
      "Sol": 8972,
      "iine": 8973,
      "kh": 8974,
      "sd": 8975,
      "sign": 8976,
      "tz": 8977,
      "uer": 8978,
      "Ġax": 8979,
      "Ġcly": 8980,
      "ati": 8981,
      "Ġmili": 8982,
      "Ġhal": 8983,
      "Ġnick": 8984,
      "leading": 8985,
      "Ġgnome": 8986,
      "Ġgpg": 8987,
      "ersen": 8988,
      "istance": 8989,
      "Ġaside": 8990,
      "iveness": 8991,
      "Ġshap": 8992,
      "Ġusb": 8993,
      "Ġspect": 8994,
      "Ġinterf": 8995,
      "Ġteco": 8996,
      "Ġupcoming": 8997,
      "ĠWE": 8998,
      "Ġinton": 8999,
      "Ġ86": 9000,
      "acing": 9001,
      "Ġsomewhere": 9002,
      "ĠGR": 9003,
      "Ġfinish": 9004,
      "Ġaccum": 9005,
      "onsor": 9006,
      "ĠInternational": 9007,
      "Ġadvers": 9008,
      "Ġdeveloper": 9009,
      "Ġnewsiet": 9010,
      "Ġsimon": 9011,
      "Ġ503": 9012,
      "Ġcapable": 9013,
      "Ġpursue": 9014,
      "Ġgrid": 9015,
      "iiu": 9016,
      "Ġbelieved": 9017,
      "Ġfurthermore": 9018,
      "Ġlogical": 9019,
      "Ġbasin": 9020,
      "brbr": 9021,
      "Ġallowing": 9022,
      "ĠProgram": 9023,
      "Ġpalmer": 9024,
      "Ġmaxim": 9025,
      "Ġratio": 9026,
      "Ġcommodities": 9027,
      "Ġvirtually": 9028,
      "Software": 9029,
      "Ġignored": 9030,
      "Ġattractive": 9031,
      "Ġresolve": 9032,
      "Ġhenry": 9033,
      "Cheers": 9034,
      "Ġincredible": 9035,
      "Ġprocmail": 9036,
      "Ġnewsietter": 9037,
      "/#": 9038,
      "Im": 9039,
      "Microsoft": 9040,
      "hus": 9041,
      "nm": 9042,
      "rr": 9043,
      "tu": 9044,
      "Ġsust": 9045,
      "Ġcath": 9046,
      "Ġpul": 9047,
      "ester": 9048,
      "Ġlake": 9049,
      "Ġgil": 9050,
      "Ġgross": 9051,
      "iders": 9052,
      "Ġproxy": 9053,
      "Ġenquir": 9054,
      "thread": 9055,
      "Ġcompiled": 9056,
      "aki": 9057,
      "ĠAg": 9058,
      "ĠCA": 9059,
      "Ġ;-)": 9060,
      "Ġamend": 9061,
      "Ġplc": 9062,
      "keep": 9063,
      "ĠBro": 9064,
      "Ġeditors": 9065,
      "ĊĠĠĠĠĠĠĠĠĠĠĠĠĠĠĠĠĠĠĠĠĠĠĠĠĠĠĠĠĠĠĠĠ": 9066,
      "Ġdiscreet": 9067,
      "Ġincur": 9068,
      "onsin": 9069,
      "Ġcold": 9070,
      "ahoma": 9071,
      "Ġstarts": 9072,
      "Ġfutures": 9073,
      "Ġeuros": 9074,
      "Ġaffected": 9075,
      "Ġrefund": 9076,
      "Ġpublishers": 9077,
      "Ġswap": 9078,
      "Ġtypically": 9079,
      "Ġcorrel": 9080,
      "kyo": 9081,
      "ographic": 9082,
      "Ġfuer": 9083,
      "isconsin": 9084,
      "Ã§Å¡": 9085,
      "ĠQU": 9086,
      "0700": 9087,
      "Ġarrangement": 9088,
      "Order": 9089,
      "iscover": 9090,
      "Ġohio": 9091,
      "Ġcomponents": 9092,
      "Check": 9093,
      "MOVE": 9094,
      "Ġenclosed": 9095,
      "Ġlaptop": 9096,
      "Ġkimberly": 9097,
      "achusetts": 9098,
      "/?": 9099,
      "199": 9100,
      "App": 9101,
      "DF": 9102,
      "Every": 9103,
      "GH": 9104,
      "OST": 9105,
      "aire": 9106,
      "water": 9107,
      "Ġthrow": 9108,
      "Ġmolly": 9109,
      "Ġmouton": 9110,
      "Ġdell": 9111,
      "Ġhang": 9112,
      "Ġ(\"": 9113,
      "Ġvance": 9114,
      "Ġproto": 9115,
      "emic": 9116,
      "Ġunix": 9117,
      "Ġadver": 9118,
      "ĠAir": 9119,
      "class": 9120,
      "Ġclock": 9121,
      "plete": 9122,
      "Ġinformal": 9123,
      "ervice": 9124,
      "Ġlisten": 9125,
      "ĠGPL": 9126,
      "ĠEv": 9127,
      "Ġgene": 9128,
      "Ġseeks": 9129,
      "Ġcoling": 9130,
      "Ġmodem": 9131,
      "Ġcalpine": 9132,
      "type": 9133,
      "Ġpolitics": 9134,
      "________________________________________________________________": 9135,
      "Ġlocations": 9136,
      "Ġpromised": 9137,
      "process": 9138,
      "ĠÂ¡": 9139,
      "ICE": 9140,
      "Ġillegal": 9141,
      "Ġencoding": 9142,
      "regon": 9143,
      "Ġredupl": 9144,
      "Ġdisclose": 9145,
      "Ġvideos": 9146,
      "Ġdecline": 9147,
      "ĠOrder": 9148,
      "Ġsynchron": 9149,
      "Ġdiscounts": 9150,
      "ĠAtoll": 9151,
      "ĠNewsletter": 9152,
      "Ġdreams": 9153,
      "Ġmanufacturer": 9154,
      "Ġpharmace": 9155,
      "Ġstationery": 9156,
      "Ġadministrative": 9157,
      "Ġminority": 9158,
      "Ġfrancisco": 9159,
      "Ġsurprised": 9160,
      "Ġchallenges": 9161,
      "Ġprohibited": 9162,
      "itzerland": 9163,
      "ARE": 9164,
      "Rep": 9165,
      "Su": 9166,
      "TOP": 9167,
      "XL": 9168,
      "bling": 9169,
      "cg": 9170,
      "pres": 9171,
      "Ġtip": 9172,
      "Ġtape": 9173,
      "Ġsad": 9174,
      "Ġfish": 9175,
      "Ġble": 9176,
      "Ġdent": 9177,
      "Ġdark": 9178,
      "Ġanaphor": 9179,
      "Ġln": 9180,
      "eto": 9181,
      "ched": 9182,
      "strong": 9183,
      "Ġstu": 9184,
      "Ġstored": 9185,
      "igue": 9186,
      "Ġconvin": 9187,
      "Ġitec": 9188,
      "Ġjordan": 9189,
      "Ġsue": 9190,
      "Ġneuro": 9191,
      "irm": 9192,
      "ĠID": 9193,
      "Ġshr": 9194,
      "ieves": 9195,
      "ĠCo": 9196,
      "ĠPack": 9197,
      "ĠPacific": 9198,
      "Ġdisag": 9199,
      "Ġinvoked": 9200,
      "ĠDis": 9201,
      "Ġroles": 9202,
      "ĠHer": 9203,
      "Ġbelg": 9204,
      "Ġlets": 9205,
      "Ġbrid": 9206,
      "Ġeveryday": 9207,
      "ashion": 9208,
      "Ġdefend": 9209,
      "ĠStart": 9210,
      "program": 9211,
      "Ġclassroom": 9212,
      "Ġtrem": 9213,
      "Ġhyper": 9214,
      "Ġreplies": 9215,
      "Ġcounsel": 9216,
      "Ġenterprises": 9217,
      "Ġcomplexity": 9218,
      "))))": 9219,
      "Ġenhanced": 9220,
      "Ġgathered": 9221,
      "Ġabsence": 9222,
      "ĠTechnology": 9223,
      "claimed": 9224,
      "Ġnigeria": 9225,
      "likely": 9226,
      "Ġstatistical": 9227,
      "Ġcontemporary": 9228,
      "bj": 9229,
      "buchet": 9230,
      "core": 9231,
      "fil": 9232,
      "town": 9233,
      "vZ": 9234,
      "Ġanjam": 9235,
      "Ġlng": 9236,
      "Ġnav": 9237,
      "ĠeBay": 9238,
      "Ġanderson": 9239,
      "otics": 9240,
      "Ġva": 9241,
      "Ġpropose": 9242,
      "esse": 9243,
      "Ġrum": 9244,
      "quet": 9245,
      "Ġunseen": 9246,
      "Ġexit": 9247,
      "Ġworst": 9248,
      "Ġaband": 9249,
      "Ġacrob": 9250,
      "ĠME": 9251,
      "Ġteen": 9252,
      "Ġplun": 9253,
      ".....": 9254,
      "Ġreput": 9255,
      "Ġnovel": 9256,
      "ĠFl": 9257,
      "Ġroger": 9258,
      "into": 9259,
      "Ġdriving": 9260,
      "Ġpointed": 9261,
      "Ġended": 9262,
      "Ġcritic": 9263,
      "Ġsurprise": 9264,
      "Ġversus": 9265,
      "Ġexplos": 9266,
      "ifying": 9267,
      "Ġputs": 9268,
      "Ġbarry": 9269,
      "Ġnegation": 9270,
      "Ġinstitution": 9271,
      "ART": 9272,
      "Ġquarterly": 9273,
      "Ġmuscle": 9274,
      "ÂģÂ®": 9275,
      "Ġcyber": 9276,
      "Ġwilson": 9277,
      "Ġsilver": 9278,
      "Ġoriginally": 9279,
      "Ġlectures": 9280,
      "ĠEditor": 9281,
      "Ġincreasingly": 9282,
      "Ġlauraan": 9283,
      "Ġlegislation": 9284,
      "Ġbaby": 9285,
      "DeathToSpamDeathToSpamDeathToSpam": 9286,
      "Ġtechnoiogy": 9287,
[...]
